{
    "version": "1.0",
    "truncation": {
      "direction": "Right",
      "max_length": 128,
      "strategy": "LongestFirst",
      "stride": 0
    },
    "padding": {
      "strategy": {
        "Fixed": 128
      },
      "direction": "Right",
      "pad_to_multiple_of": null,
      "pad_id": 1,
      "pad_type_id": 0,
      "pad_token": "<pad>"
    },
    "added_tokens": [
      {
        "id": 0,
        "content": "<unk>",
        "single_word": false,
        "lstrip": false,
        "rstrip": false,
        "normalized": false,
        "special": true
      },
      {
        "id": 1,
        "content": "<pad>",
        "single_word": false,
        "lstrip": false,
        "rstrip": false,
        "normalized": false,
        "special": true
      },
      {
        "id": 2,
        "content": "<s-en>",
        "single_word": false,
        "lstrip": false,
        "rstrip": false,
        "normalized": false,
        "special": true
      },
      {
        "id": 3,
        "content": "<s-hi>",
        "single_word": false,
        "lstrip": false,
        "rstrip": false,
        "normalized": false,
        "special": true
      },
      {
        "id": 4,
        "content": "<s-mr>",
        "single_word": false,
        "lstrip": false,
        "rstrip": false,
        "normalized": false,
        "special": true
      },
      {
        "id": 5,
        "content": "</s>",
        "single_word": false,
        "lstrip": false,
        "rstrip": false,
        "normalized": false,
        "special": true
      }
    ],
    "normalizer": {
      "type": "Sequence",
      "normalizers": [
        {
          "type": "Lowercase"
        }
      ]
    },
    "pre_tokenizer": {
      "type": "Whitespace"
    },
    "post_processor": null,
    "decoder": {
      "type": "WordPiece",
      "prefix": "##",
      "cleanup": true
    },
    "model": {
      "type": "WordPiece",
      "unk_token": "<unk>",
      "continuing_subword_prefix": "##",
      "max_input_chars_per_word": 100,
      "vocab": {
        "<unk>": 0,
        "<pad>": 1,
        "<s-en>": 2,
        "<s-hi>": 3,
        "<s-mr>": 4,
        "</s>": 5,
        "!": 6,
        "\"": 7,
        "#": 8,
        "$": 9,
        "%": 10,
        "&": 11,
        "'": 12,
        "(": 13,
        ")": 14,
        "*": 15,
        "+": 16,
        ",": 17,
        "-": 18,
        ".": 19,
        "/": 20,
        "0": 21,
        "1": 22,
        "2": 23,
        "3": 24,
        "4": 25,
        "5": 26,
        "6": 27,
        "7": 28,
        "8": 29,
        "9": 30,
        ":": 31,
        ";": 32,
        "<": 33,
        "=": 34,
        ">": 35,
        "?": 36,
        "@": 37,
        "[": 38,
        "\\": 39,
        "]": 40,
        "^": 41,
        "_": 42,
        "`": 43,
        "a": 44,
        "b": 45,
        "c": 46,
        "d": 47,
        "e": 48,
        "f": 49,
        "g": 50,
        "h": 51,
        "i": 52,
        "j": 53,
        "k": 54,
        "l": 55,
        "m": 56,
        "n": 57,
        "o": 58,
        "p": 59,
        "q": 60,
        "r": 61,
        "s": 62,
        "t": 63,
        "u": 64,
        "v": 65,
        "w": 66,
        "x": 67,
        "y": 68,
        "z": 69,
        "{": 70,
        "|": 71,
        "}": 72,
        "~": 73,
        "": 74,
        "": 75,
        "": 76,
        "": 77,
        "": 78,
        "": 79,
        "": 80,
        "¡": 81,
        "£": 82,
        "¤": 83,
        "§": 84,
        "¨": 85,
        "©": 86,
        "­": 87,
        "®": 88,
        "°": 89,
        "±": 90,
        "²": 91,
        "³": 92,
        "´": 93,
        "·": 94,
        "¹": 95,
        "º": 96,
        "¼": 97,
        "½": 98,
        "¾": 99,
        "×": 100,
        "ß": 101,
        "à": 102,
        "á": 103,
        "â": 104,
        "ã": 105,
        "ä": 106,
        "å": 107,
        "æ": 108,
        "ç": 109,
        "è": 110,
        "é": 111,
        "ë": 112,
        "ì": 113,
        "í": 114,
        "î": 115,
        "ï": 116,
        "ð": 117,
        "ñ": 118,
        "ò": 119,
        "ó": 120,
        "ô": 121,
        "õ": 122,
        "ö": 123,
        "÷": 124,
        "ø": 125,
        "ú": 126,
        "û": 127,
        "ü": 128,
        "ý": 129,
        "ā": 130,
        "ă": 131,
        "ĉ": 132,
        "č": 133,
        "ē": 134,
        "ė": 135,
        "ę": 136,
        "ě": 137,
        "ĝ": 138,
        "ğ": 139,
        "ĥ": 140,
        "ī": 141,
        "ĭ": 142,
        "ı": 143,
        "ĵ": 144,
        "ļ": 145,
        "ł": 146,
        "ń": 147,
        "ň": 148,
        "ō": 149,
        "ŏ": 150,
        "ő": 151,
        "œ": 152,
        "ř": 153,
        "ś": 154,
        "ŝ": 155,
        "ş": 156,
        "š": 157,
        "ţ": 158,
        "ū": 159,
        "ŭ": 160,
        "ź": 161,
        "ż": 162,
        "ž": 163,
        "ơ": 164,
        "ư": 165,
        "ə": 166,
        "ˈ": 167,
        "˚": 168,
        "̇": 169,
        "α": 170,
        "β": 171,
        "θ": 172,
        "λ": 173,
        "μ": 174,
        "ν": 175,
        "π": 176,
        "φ": 177,
        "ω": 178,
        "а": 179,
        "в": 180,
        "д": 181,
        "е": 182,
        "й": 183,
        "н": 184,
        "о": 185,
        "п": 186,
        "р": 187,
        "ч": 188,
        "ئ": 189,
        "ا": 190,
        "ب": 191,
        "ت": 192,
        "ج": 193,
        "ح": 194,
        "د": 195,
        "ر": 196,
        "س": 197,
        "ش": 198,
        "ص": 199,
        "ط": 200,
        "ع": 201,
        "غ": 202,
        "ف": 203,
        "ق": 204,
        "ك": 205,
        "ل": 206,
        "م": 207,
        "ن": 208,
        "ه": 209,
        "و": 210,
        "ي": 211,
        "ँ": 212,
        "ं": 213,
        "ः": 214,
        "अ": 215,
        "आ": 216,
        "इ": 217,
        "ई": 218,
        "उ": 219,
        "ऊ": 220,
        "ऋ": 221,
        "ऌ": 222,
        "ऍ": 223,
        "ऎ": 224,
        "ए": 225,
        "ऐ": 226,
        "ऑ": 227,
        "ओ": 228,
        "औ": 229,
        "क": 230,
        "ख": 231,
        "ग": 232,
        "घ": 233,
        "ङ": 234,
        "च": 235,
        "छ": 236,
        "ज": 237,
        "झ": 238,
        "ञ": 239,
        "ट": 240,
        "ठ": 241,
        "ड": 242,
        "ढ": 243,
        "ण": 244,
        "त": 245,
        "थ": 246,
        "द": 247,
        "ध": 248,
        "न": 249,
        "ऩ": 250,
        "प": 251,
        "फ": 252,
        "ब": 253,
        "भ": 254,
        "म": 255,
        "य": 256,
        "र": 257,
        "ऱ": 258,
        "ल": 259,
        "ळ": 260,
        "ऴ": 261,
        "व": 262,
        "श": 263,
        "ष": 264,
        "स": 265,
        "ह": 266,
        "़": 267,
        "ा": 268,
        "ि": 269,
        "ी": 270,
        "ु": 271,
        "ू": 272,
        "ृ": 273,
        "ॅ": 274,
        "ॆ": 275,
        "े": 276,
        "ै": 277,
        "ॉ": 278,
        "ॊ": 279,
        "ो": 280,
        "ौ": 281,
        "्": 282,
        "क़": 283,
        "ख़": 284,
        "ग़": 285,
        "ज़": 286,
        "ड़": 287,
        "ढ़": 288,
        "फ़": 289,
        "य़": 290,
        "ॣ": 291,
        "।": 292,
        "॥": 293,
        "०": 294,
        "१": 295,
        "२": 296,
        "३": 297,
        "४": 298,
        "५": 299,
        "६": 300,
        "७": 301,
        "८": 302,
        "९": 303,
        "॰": 304,
        "ॲ": 305,
        "ং": 306,
        "দ": 307,
        "ন": 308,
        "ব": 309,
        "ম": 310,
        "র": 311,
        "শ": 312,
        "স": 313,
        "া": 314,
        "ি": 315,
        "ো": 316,
        "ආ": 317,
        "ජ": 318,
        "බ": 319,
        "ය": 320,
        "ව": 321,
        "ා": 322,
        "ි": 323,
        "ු": 324,
        "ේ": 325,
        "ෝ": 326,
        "ḥ": 327,
        "ạ": 328,
        "ầ": 329,
        "ễ": 330,
        "ệ": 331,
        "ị": 332,
        "ọ": 333,
        "ộ": 334,
        "ỳ": 335,
        "​": 336,
        "‌": 337,
        "‍": 338,
        "–": 339,
        "—": 340,
        "‘": 341,
        "’": 342,
        "‚": 343,
        "“": 344,
        "”": 345,
        "‟": 346,
        "•": 347,
        "…": 348,
        "′": 349,
        "″": 350,
        "⁴": 351,
        "⁵": 352,
        "⁶": 353,
        "⁻": 354,
        "₂": 355,
        "₪": 356,
        "€": 357,
        "₴": 358,
        "™": 359,
        "⅓": 360,
        "⅔": 361,
        "⅕": 362,
        "⅖": 363,
        "⅗": 364,
        "⅘": 365,
        "⅙": 366,
        "→": 367,
        "↲": 368,
        "∕": 369,
        "√": 370,
        "∣": 371,
        "≠": 372,
        "≤": 373,
        "≥": 374,
        "⌈": 375,
        "⌉": 376,
        "⌊": 377,
        "⌋": 378,
        "☭": 379,
        "♪": 380,
        "♫": 381,
        "か": 382,
        "さ": 383,
        "な": 384,
        "に": 385,
        "の": 386,
        "ん": 387,
        "サ": 388,
        "ス": 389,
        "ッ": 390,
        "ト": 391,
        "プ": 392,
        "ラ": 393,
        "ル": 394,
        "ン": 395,
        "一": 396,
        "人": 397,
        "和": 398,
        "品": 399,
        "字": 400,
        "宇": 401,
        "材": 402,
        "束": 403,
        "治": 404,
        "漢": 405,
        "秒": 406,
        "逸": 407,
        "食": 408,
        "ﬁ": 409,
        "ﬂ": 410,
        "﻿": 411,
        "�": 412,
        "##r": 413,
        "##i": 414,
        "##f": 415,
        "##l": 416,
        "##e": 417,
        "##s": 418,
        "##c": 419,
        "##o": 420,
        "##n": 421,
        "##_": 422,
        "##d": 423,
        "##a": 424,
        "##b": 425,
        "##m": 426,
        "##k": 427,
        "##h": 428,
        "##u": 429,
        "##t": 430,
        "##े": 431,
        "##व": 432,
        "##ल": 433,
        "##ं": 434,
        "##ॅ": 435,
        "##ट": 436,
        "##म": 437,
        "##न": 438,
        "##ा": 439,
        "##उ": 440,
        "##p": 441,
        "##ि": 442,
        "##ड": 443,
        "##स": 444,
        "##y": 445,
        "##ü": 446,
        "##्": 447,
        "##र": 448,
        "##ी": 449,
        "##इ": 450,
        "##ज": 451,
        "##अ": 452,
        "##ई": 453,
        "##ग": 454,
        "##क": 455,
        "##प": 456,
        "##त": 457,
        "##य": 458,
        "##ॉ": 459,
        "##ु": 460,
        "##g": 461,
        "##v": 462,
        "##च": 463,
        "##ह": 464,
        "##ऊ": 465,
        "##आ": 466,
        "##ष": 467,
        "##ण": 468,
        "##ो": 469,
        "##z": 470,
        "##घ": 471,
        "##x": 472,
        "##3": 473,
        "##ब": 474,
        "##ड़": 475,
        "##ै": 476,
        "##द": 477,
        "##ू": 478,
        "##5": 479,
        "##2": 480,
        "##फ": 481,
        "##ौ": 482,
        "##ँ": 483,
        "##भ": 484,
        "##श": 485,
        "##1": 486,
        "##ध": 487,
        "##ृ": 488,
        "##ढ": 489,
        "##ळ": 490,
        "##j": 491,
        "##ख": 492,
        "##w": 493,
        "##ठ": 494,
        "##थ": 495,
        "##ए": 496,
        "##छ": 497,
        "##़": 498,
        "##ऱ": 499,
        "##0": 500,
        "##4": 501,
        "##ः": 502,
        "##फ़": 503,
        "##7": 504,
        "##q": 505,
        "##ऑ": 506,
        "##ओ": 507,
        "##;": 508,
        "##â": 509,
        "##8": 510,
        "##ज़": 511,
        "##ä": 512,
        "##ख़": 513,
        "##क़": 514,
        "##~": 515,
        "##ö": 516,
        "##८": 517,
        "##झ": 518,
        "##ञ": 519,
        "##9": 520,
        "##\\": 521,
        "##.": 522,
        "##/": 523,
        "##å": 524,
        "###": 525,
        "##$": 526,
        "##:": 527,
        "##%": 528,
        "##+": 529,
        "##,": 530,
        "##=": 531,
        "##@": 532,
        "##^": 533,
        "##'": 534,
        "##]": 535,
        "##ó": 536,
        "##6": 537,
        "##ऐ": 538,
        "##औ": 539,
        "##ढ़": 540,
        "##’": 541,
        "##”": 542,
        "##?": 543,
        "##)": 544,
        "##ل": 545,
        "##م": 546,
        "##ف": 547,
        "##ت": 548,
        "##و": 549,
        "##ح": 550,
        "##ه": 551,
        "##é": 552,
        "##ग़": 553,
        "##*": 554,
        "##!": 555,
        "##ł": 556,
        "##ऋ": 557,
        "##‘": 558,
        "##õ": 559,
        "##ص": 560,
        "##غ": 561,
        "##ي": 562,
        "##ر": 563,
        "##२": 564,
        "##\"": 565,
        "##(": 566,
        "##ॆ": 567,
        "##-": 568,
        "##​": 569,
        "##è": 570,
        "##æ": 571,
        "##६": 572,
        "##‍": 573,
        "##०": 574,
        "##‌": 575,
        "##ń": 576,
        "##í": 577,
        "##य़": 578,
        "##á": 579,
        "##ā": 580,
        "##ø": 581,
        "##७": 582,
        "##[": 583,
        "##ऩ": 584,
        "##{": 585,
        "##>": 586,
        "##ş": 587,
        "##<": 588,
        "##१": 589,
        "##९": 590,
        "##३": 591,
        "##č": 592,
        "##ë": 593,
        "##♪": 594,
        "##ï": 595,
        "##।": 596,
        "##ē": 597,
        "##५": 598,
        "##♫": 599,
        "##ऴ": 600,
        "##४": 601,
        "##ı": 602,
        "##`": 603,
        "##ﬁ": 604,
        "##“": 605,
        "##ọ": 606,
        "##ñ": 607,
        "##ŏ": 608,
        "##ô": 609,
        "##ේ": 610,
        "##ව": 611,
        "##ා": 612,
        "##š": 613,
        "##ن": 614,
        "##ا": 615,
        "##ă": 616,
        "##ය": 617,
        "##à": 618,
        "##ū": 619,
        "##ऎ": 620,
        "##": 621,
        "##": 622,
        "##ð": 623,
        "##ú": 624,
        "##ॣ": 625,
        "##}": 626,
        "##î": 627,
        "##ž": 628,
        "##ν": 629,
        "##": 630,
        "##ç": 631,
        "##—": 632,
        "##ॊ": 633,
        "##ň": 634,
        "##س": 635,
        "##£": 636,
        "##€": 637,
        "##º": 638,
        "##品": 639,
        "##サ": 640,
        "##ン": 641,
        "##プ": 642,
        "##ル": 643,
        "##ţ": 644,
        "##ễ": 645,
        "##ط": 646,
        "##ئ": 647,
        "##е": 648,
        "##р": 649,
        "##п": 650,
        "##а": 651,
        "##н": 652,
        "##о": 653,
        "##в": 654,
        "##ğ": 655,
        "##ি": 656,
        "##র": 657,
        "##ো": 658,
        "##ন": 659,
        "##া": 660,
        "##ম": 661,
        "##ị": 662,
        "##…": 663,
        "##ė": 664,
        "##ř": 665,
        "##ý": 666,
        "##ト": 667,
        "##ラ": 668,
        "##ッ": 669,
        "##⌈": 670,
        "##ã": 671,
        "##ك": 672,
        "##ং": 673,
        "##ব": 674,
        "##দ": 675,
        "##ạ": 676,
        "##ŭ": 677,
        "##ß": 678,
        "##˚": 679,
        "##ĭ": 680,
        "##ī": 681,
        "##ō": 682,
        "##ő": 683,
        "##ę": 684,
        "##ङ": 685,
        "##&": 686,
        "##": 687,
        "##⌊": 688,
        "##×": 689,
        "##÷": 690,
        "##ź": 691,
        "##治": 692,
        "##ě": 693,
        "##û": 694,
        "##↲": 695,
        "##ə": 696,
        "##ỳ": 697,
        "##ộ": 698,
        "##ب": 699,
        "##ج": 700,
        "##ع": 701,
        "##ò": 702,
        "##د": 703,
        "##ì": 704,
        "##д": 705,
        "##й": 706,
        "##ż": 707,
        "##ệ": 708,
        "##ļ": 709,
        "##̇": 710,
        "##ش": 711,
        "##ư": 712,
        "##ق": 713,
        "##ऌ": 714,
        "##œ": 715,
        "##¡": 716,
        "##ි": 717,
        "##බ": 718,
        "##ෝ": 719,
        "##ḥ": 720,
        "##束": 721,
        "##な": 722,
        "##ầ": 723,
        "##ﬂ": 724,
        "##ơ": 725,
        "##秒": 726,
        "##に": 727,
        "##一": 728,
        "##人": 729,
        "##の": 730,
        "##逸": 731,
        "##材": 732,
        "##さ": 733,
        "##ん": 734,
        "##ු": 735,
        "##ऍ": 736,
        "##字": 737,
        "th": 738,
        "the": 739,
        "##er": 740,
        "##nd": 741,
        "है": 742,
        "##ou": 743,
        "##ें": 744,
        "और": 745,
        "##in": 746,
        "##or": 747,
        "##at": 748,
        "##ll": 749,
        "##ार": 750,
        "##en": 751,
        "and": 752,
        "##es": 753,
        "##ed": 754,
        "##या": 755,
        "##ने": 756,
        "##on": 757,
        "कर": 758,
        "you": 759,
        "##re": 760,
        "##ों": 761,
        "wh": 762,
        "to": 763,
        "कि": 764,
        "के": 765,
        "##ुम": 766,
        "##is": 767,
        "of": 768,
        "तुम": 769,
        "##ar": 770,
        "##ing": 771,
        "##th": 772,
        "##ता": 773,
        "##्र": 774,
        "को": 775,
        "##an": 776,
        "##ही": 777,
        "से": 778,
        "be": 779,
        "##ान": 780,
        "उन": 781,
        "##om": 782,
        "in": 783,
        "में": 784,
        "##ला": 785,
        "उस": 786,
        "wi": 787,
        "##ve": 788,
        "##ते": 789,
        "की": 790,
        "तो": 791,
        "##le": 792,
        "is": 793,
        "no": 794,
        "he": 795,
        "##ोग": 796,
        "##se": 797,
        "##ay": 798,
        "##्ह": 799,
        "ha": 800,
        "##ना": 801,
        "for": 802,
        "##हीं": 803,
        "हम": 804,
        "का": 805,
        "all": 806,
        "पर": 807,
        "##ाल": 808,
        "##ow": 809,
        "re": 810,
        "##के": 811,
        "##दा": 812,
        "##st": 813,
        "they": 814,
        "##र्": 815,
        "नहीं": 816,
        "##ion": 817,
        "हो": 818,
        "##ल्": 819,
        "##्त": 820,
        "जो": 821,
        "##id": 822,
        "##it": 823,
        "we": 824,
        "it": 825,
        "not": 826,
        "##ic": 827,
        "लोग": 828,
        "##ent": 829,
        "लि": 830,
        "that": 831,
        "them": 832,
        "हैं": 833,
        "जा": 834,
        "##ver": 835,
        "##ut": 836,
        "अप": 837,
        "##ur": 838,
        "who": 839,
        "##हा": 840,
        "##्य": 841,
        "##ah": 842,
        "##ly": 843,
        "##ir": 844,
        "##िर": 845,
        "on": 846,
        "##im": 847,
        "##्या": 848,
        "##से": 849,
        "will": 850,
        "##al": 851,
        "तुम्ह": 852,
        "##ig": 853,
        "दि": 854,
        "##od": 855,
        "वह": 856,
        "प्र": 857,
        "##ld": 858,
        "sh": 859,
        "जि": 860,
        "##का": 861,
        "##am": 862,
        "##ce": 863,
        "दे": 864,
        "allah": 865,
        "लिए": 866,
        "do": 867,
        "se": 868,
        "pr": 869,
        "##ess": 870,
        "एक": 871,
        "##ct": 872,
        "##ie": 873,
        "##ाह": 874,
        "ही": 875,
        "भी": 876,
        "इस": 877,
        "##रा": 878,
        "##ुदा": 879,
        "##ad": 880,
        "are": 881,
        "कु": 882,
        "##ारे": 883,
        "have": 884,
        "##as": 885,
        "नि": 886,
        "fr": 887,
        "##ड़": 888,
        "ने": 889,
        "with": 890,
        "मु": 891,
        "an": 892,
        "##स्": 893,
        "##ht": 894,
        "your": 895,
        "रह": 896,
        "##न्": 897,
        "बा": 898,
        "##all": 899,
        "सा": 900,
        "##गे": 901,
        "मै": 902,
        "##की": 903,
        "##et": 904,
        "##वा": 905,
        "##ित": 906,
        "##ले": 907,
        "##ल्ला": 908,
        "##गा": 909,
        "##ose": 910,
        "##il": 911,
        "##op": 912,
        "as": 913,
        "##क्": 914,
        "##ल्लाह": 915,
        "their": 916,
        "अल्लाह": 917,
        "##ch": 918,
        "from": 919,
        "अपने": 920,
        "##ge": 921,
        "वे": 922,
        "##ord": 923,
        "him": 924,
        "de": 925,
        "su": 926,
        "##मान": 927,
        "##ers": 928,
        "st": 929,
        "मैं": 930,
        "what": 931,
        "क्या": 932,
        "कुछ": 933,
        "##कि": 934,
        "किया": 935,
        "पा": 936,
        "sa": 937,
        "फिर": 938,
        "##ight": 939,
        "##री": 940,
        "##रे": 941,
        "this": 942,
        "##ain": 943,
        "com": 944,
        "tr": 945,
        "those": 946,
        "##ter": 947,
        "लोगों": 948,
        "##नी": 949,
        "##ation": 950,
        "##िक": 951,
        "ख़ुदा": 952,
        "हु": 953,
        "##ere": 954,
        "मे": 955,
        "या": 956,
        "##को": 957,
        "but": 958,
        "##..": 959,
        "##lie": 960,
        "ये": 961,
        "आप": 962,
        "his": 963,
        "##सा": 964,
        "god": 965,
        "so": 966,
        "यह": 967,
        "##मा": 968,
        "un": 969,
        "##ती": 970,
        "सं": 971,
        "me": 972,
        "##ke": 973,
        "जब": 974,
        "##सी": 975,
        "उनके": 976,
        "वा": 977,
        "##कर": 978,
        "##कार": 979,
        "##if": 980,
        "कोई": 981,
        "दो": 982,
        "...": 983,
        "कह": 984,
        "##िया": 985,
        "करें": 986,
        "##est": 987,
        "##ame": 988,
        "there": 989,
        "go": 990,
        "##ould": 991,
        "when": 992,
        "##िय": 993,
        "ne": 994,
        "or": 995,
        "##ul": 996,
        "उन्ह": 997,
        "lord": 998,
        "##ेश": 999,
        "##में": 1000,
        "जिस": 1001,
        "स्": 1002,
        "##ck": 1003,
        "kn": 1004,
        "##pt": 1005,
        "ex": 1006,
        "ch": 1007,
        "##दि": 1008,
        "##ारी": 1009,
        "सम": 1010,
        "if": 1011,
        "##ab": 1012,
        "ले": 1013,
        "##ment": 1014,
        "पह": 1015,
        "##एँ": 1016,
        "con": 1017,
        "##ूल": 1018,
        "तुम्हारे": 1019,
        "##ate": 1020,
        "##च्": 1021,
        "know": 1022,
        "वि": 1023,
        "करते": 1024,
        "say": 1025,
        "##ther": 1026,
        "dis": 1027,
        "करने": 1028,
        "##ard": 1029,
        "us": 1030,
        "##ven": 1031,
        "pro": 1032,
        "चाह": 1033,
        "lo": 1034,
        "then": 1035,
        "##गर": 1036,
        "##ong": 1037,
        "उसके": 1038,
        "हमने": 1039,
        "रहे": 1040,
        "has": 1041,
        "तर": 1042,
        "रख": 1043,
        "फ़": 1044,
        "##ज़": 1045,
        "pe": 1046,
        "सब": 1047,
        "##ath": 1048,
        "##ive": 1049,
        "my": 1050,
        "##ore": 1051,
        "##श्": 1052,
        "shall": 1053,
        "ना": 1054,
        "सक": 1055,
        "mo": 1056,
        "जान": 1057,
        "था": 1058,
        "##un": 1059,
        "said": 1060,
        "belie": 1061,
        "##and": 1062,
        "##ol": 1063,
        "##ant": 1064,
        "##ूँ": 1065,
        "##िल": 1066,
        "up": 1067,
        "##ich": 1068,
        "ma": 1069,
        "##ारा": 1070,
        "##pe": 1071,
        "fi": 1072,
        "##ीन": 1073,
        "दिया": 1074,
        "ab": 1075,
        "उसे": 1076,
        "ला": 1077,
        "##ome": 1078,
        "देख": 1079,
        "थे": 1080,
        "ईमान": 1081,
        "जिन": 1082,
        "करो": 1083,
        "कहा": 1084,
        "##वर": 1085,
        "बना": 1086,
        "##ुन": 1087,
        "##्ट": 1088,
        "which": 1089,
        "##वाल": 1090,
        "रस": 1091,
        "उन्हें": 1092,
        "##स्त": 1093,
        "by": 1094,
        "fa": 1095,
        "peop": 1096,
        "बात": 1097,
        "##us": 1098,
        "रसूल": 1099,
        "##to": 1100,
        "मा": 1101,
        "##पर": 1102,
        "people": 1103,
        "en": 1104,
        "##art": 1105,
        "तुम्हें": 1106,
        "can": 1107,
        "was": 1108,
        "साथ": 1109,
        "day": 1110,
        "पू": 1111,
        "al": 1112,
        "##be": 1113,
        "##ली": 1114,
        "मुझ": 1115,
        "wor": 1116,
        "हा": 1117,
        "##ust": 1118,
        "अपनी": 1119,
        "##ंग": 1120,
        "am": 1121,
        "##age": 1122,
        "अन": 1123,
        "mess": 1124,
        "##ok": 1125,
        "##चा": 1126,
        "बह": 1127,
        "##pp": 1128,
        "##च्छ": 1129,
        "पै": 1130,
        "##ri": 1131,
        "##ot": 1132,
        "।\"": 1133,
        "##क्ष": 1134,
        "पास": 1135,
        "जाए": 1136,
        "##न्द": 1137,
        "##em": 1138,
        "##ast": 1139,
        "man": 1140,
        "सि": 1141,
        "दिन": 1142,
        "one": 1143,
        "##ish": 1144,
        "li": 1145,
        "##one": 1146,
        "fo": 1147,
        "होग": 1148,
        "ind": 1149,
        "br": 1150,
        "at": 1151,
        "our": 1152,
        "गया": 1153,
        "bo": 1154,
        "##ist": 1155,
        "##urn": 1156,
        "बे": 1157,
        "ye": 1158,
        "##ves": 1159,
        "##ति": 1160,
        "अच्छ": 1161,
        "रहा": 1162,
        "##ूर": 1163,
        "##हाँ": 1164,
        "##ra": 1165,
        "##क्त": 1166,
        "##ुत": 1167,
        "##ाइ": 1168,
        "##ect": 1169,
        "##ज़ा": 1170,
        "किसी": 1171,
        "were": 1172,
        "##ity": 1173,
        "##ुर": 1174,
        "pl": 1175,
        "मुझे": 1176,
        "ear": 1177,
        "##um": 1178,
        "##्व": 1179,
        "##गार": 1180,
        "इन": 1181,
        "##खा": 1182,
        "##own": 1183,
        "ad": 1184,
        "##गी": 1185,
        "##ियों": 1186,
        "ची": 1187,
        "##ेज": 1188,
        "##ous": 1189,
        "gu": 1190,
        "##eed": 1191,
        "##vers": 1192,
        "हूँ": 1193,
        "##म्": 1194,
        "##बर": 1195,
        "##reat": 1196,
        "बद": 1197,
        "ता": 1198,
        "बु": 1199,
        "any": 1200,
        "मि": 1201,
        "le": 1202,
        "##fore": 1203,
        "##ise": 1204,
        "##टा": 1205,
        "वाल": 1206,
        "##ort": 1207,
        "अगर": 1208,
        "##मत": 1209,
        "##ings": 1210,
        "##out": 1211,
        "##ind": 1212,
        "##ans": 1213,
        "रब": 1214,
        "##ंद": 1215,
        "तक": 1216,
        "##ack": 1217,
        "##our": 1218,
        "tru": 1219,
        "उसकी": 1220,
        "##au": 1221,
        "indeed": 1222,
        "##ार्": 1223,
        "had": 1224,
        "rem": 1225,
        "##भी": 1226,
        "हर": 1227,
        "fe": 1228,
        "##ेंगे": 1229,
        "##देश": 1230,
        "sure": 1231,
        "##oug": 1232,
        "af": 1233,
        "##ide": 1234,
        "##ag": 1235,
        "मेरे": 1236,
        ".\"": 1237,
        "करता": 1238,
        "out": 1239,
        "ever": 1240,
        "तरह": 1241,
        "यदि": 1242,
        "would": 1243,
        "##os": 1244,
        "see": 1245,
        "##चे": 1246,
        "अत": 1247,
        "उनकी": 1248,
        "##ever": 1249,
        "right": 1250,
        "पहले": 1251,
        "##ip": 1252,
        "##ign": 1253,
        "दी": 1254,
        "##sel": 1255,
        "may": 1256,
        "##ूस": 1257,
        "##पा": 1258,
        "good": 1259,
        "ev": 1260,
        "काम": 1261,
        "##ाइल": 1262,
        "चु": 1263,
        "come": 1264,
        "##ष्ट": 1265,
        "gr": 1266,
        "परवर": 1267,
        "ar": 1268,
        "##ानी": 1269,
        "##oun": 1270,
        "परवरदि": 1271,
        "बहुत": 1272,
        "होगा": 1273,
        "रा": 1274,
        "ओर": 1275,
        "earth": 1276,
        "did": 1277,
        "गु": 1278,
        "वही": 1279,
        "been": 1280,
        "##ak": 1281,
        "परवरदिगार": 1282,
        "some": 1283,
        "करे": 1284,
        "##ोंने": 1285,
        "##त्र": 1286,
        "##ful": 1287,
        "##बा": 1288,
        "##िए": 1289,
        "##ance": 1290,
        "name": 1291,
        "only": 1292,
        "उसने": 1293,
        "##belie": 1294,
        "##ert": 1295,
        "कार": 1296,
        "bl": 1297,
        "ख़": 1298,
        "##यत": 1299,
        "हुए": 1300,
        "before": 1301,
        "im": 1302,
        "##्यों": 1303,
        "##cc": 1304,
        "believe": 1305,
        "ag": 1306,
        "##श्च": 1307,
        "cl": 1308,
        "down": 1309,
        "##thing": 1310,
        "##दार": 1311,
        "##able": 1312,
        "##फ़": 1313,
        "##नों": 1314,
        "क़": 1315,
        "##ade": 1316,
        "aw": 1317,
        "##न्त": 1318,
        "##ंड": 1319,
        "##eng": 1320,
        "सी": 1321,
        "दिखा": 1322,
        "सू": 1323,
        "##ving": 1324,
        "##मी": 1325,
        "does": 1326,
        "surely": 1327,
        "##ure": 1328,
        "हमारे": 1329,
        "ver": 1330,
        "रो": 1331,
        "wr": 1332,
        "##ved": 1333,
        "##ड़ा": 1334,
        "##त्": 1335,
        "बस": 1336,
        "##ound": 1337,
        "##ach": 1338,
        "पहु": 1339,
        "upon": 1340,
        "##ill": 1341,
        "##्ञ": 1342,
        "##qu": 1343,
        "सु": 1344,
        "##ud": 1345,
        "##we": 1346,
        "##ies": 1347,
        "##ount": 1348,
        "like": 1349,
        "##ase": 1350,
        "##ाना": 1351,
        "ताकि": 1352,
        "छो": 1353,
        "बड़": 1354,
        "क्": 1355,
        "##ाप": 1356,
        "##cept": 1357,
        "comm": 1358,
        "##ace": 1359,
        "क्यों": 1360,
        "cont": 1361,
        "res": 1362,
        "##ताब": 1363,
        "अब": 1364,
        "रू": 1365,
        "हुआ": 1366,
        "उनसे": 1367,
        "निक": 1368,
        "##ोल": 1369,
        "te": 1370,
        "sign": 1371,
        "##ीक": 1372,
        "sp": 1373,
        "over": 1374,
        "##el": 1375,
        "forg": 1376,
        "निश्च": 1377,
        "##ave": 1378,
        "भेज": 1379,
        "how": 1380,
        "than": 1381,
        "##द्": 1382,
        "##मे": 1383,
        "##lect": 1384,
        "भा": 1385,
        "bec": 1386,
        "unto": 1387,
        "##so": 1388,
        "पैदा": 1389,
        "sent": 1390,
        "मो": 1391,
        "##ily": 1392,
        "##ime": 1393,
        "उसी": 1394,
        "again": 1395,
        "##वि": 1396,
        "here": 1397,
        "उप": 1398,
        "##ढ़": 1399,
        "made": 1400,
        "##ption": 1401,
        "हों": 1402,
        "nor": 1403,
        "##ाय": 1404,
        "##ूद": 1405,
        "##ine": 1406,
        "##शन": 1407,
        "),": 1408,
        "##ass": 1409,
        "##क़": 1410,
        "##तर": 1411,
        "वाला": 1412,
        "should": 1413,
        "तुम्हारी": 1414,
        "spe": 1415,
        "##ward": 1416,
        "यहाँ": 1417,
        "bet": 1418,
        "##erc": 1419,
        "पहुँ": 1420,
        "अनु": 1421,
        "rec": 1422,
        "hea": 1423,
        "पी": 1424,
        "every": 1425,
        "turn": 1426,
        "among": 1427,
        "about": 1428,
        "##ची": 1429,
        "सकता": 1430,
        "##ake": 1431,
        "फ़ाइल": 1432,
        "समझ": 1433,
        "##pl": 1434,
        "उन्होंने": 1435,
        "truth": 1436,
        "सकते": 1437,
        "messeng": 1438,
        "co": 1439,
        "##क्र": 1440,
        "लिया": 1441,
        "चल": 1442,
        "##ause": 1443,
        "##तना": 1444,
        "whom": 1445,
        "##ted": 1446,
        "des": 1447,
        "जाएँ": 1448,
        "##हे": 1449,
        "खु": 1450,
        "##हर": 1451,
        "उनको": 1452,
        "##sh": 1453,
        "book": 1454,
        "अध": 1455,
        "किताब": 1456,
        ").": 1457,
        "##न्न": 1458,
        "sc": 1459,
        "##्स": 1460,
        "बि": 1461,
        "बाद": 1462,
        "##िश": 1463,
        "नाम": 1464,
        "अज़ा": 1465,
        "##ry": 1466,
        "back": 1467,
        "उसका": 1468,
        "पु": 1469,
        "गए": 1470,
        "##llow": 1471,
        "अज़ाब": 1472,
        "##ियाँ": 1473,
        "थी": 1474,
        "खा": 1475,
        "हि": 1476,
        "comp": 1477,
        "दूस": 1478,
        "per": 1479,
        "माल": 1480,
        "##ink": 1481,
        "अव": 1482,
        "लो": 1483,
        "##नेवाल": 1484,
        "##ject": 1485,
        "##टे": 1486,
        "##ice": 1487,
        "##nder": 1488,
        "खुदा": 1489,
        "ser": 1490,
        "call": 1491,
        "disbelie": 1492,
        "##ress": 1493,
        "##ness": 1494,
        "##ोल्": 1495,
        "तू": 1496,
        "##बी": 1497,
        "file": 1498,
        "could": 1499,
        "जाओ": 1500,
        "संदेश": 1501,
        "make": 1502,
        "##iz": 1503,
        "new": 1504,
        "trans": 1505,
        "after": 1506,
        "##ber": 1507,
        "करना": 1508,
        "डर": 1509,
        "साम": 1510,
        "merc": 1511,
        "##ड़े": 1512,
        "मेरी": 1513,
        "सर": 1514,
        "##वी": 1515,
        "##शी": 1516,
        "मौ": 1517,
        "fear": 1518,
        "##ro": 1519,
        "ऐसे": 1520,
        "most": 1521,
        "set": 1522,
        "उससे": 1523,
        "##ction": 1524,
        "तुम्हारा": 1525,
        "##ied": 1526,
        "where": 1527,
        "pre": 1528,
        "heaven": 1529,
        "##ile": 1530,
        "##ठा": 1531,
        "she": 1532,
        "डा": 1533,
        "वाले": 1534,
        "##जा": 1535,
        "डाल": 1536,
        "ज़": 1537,
        "याद": 1538,
        "तरफ": 1539,
        "मार्": 1540,
        "जाएगा": 1541,
        "अच्छा": 1542,
        "##are": 1543,
        "gi": 1544,
        "creat": 1545,
        "give": 1546,
        "##मीन": 1547,
        "?\"": 1548,
        "##ree": 1549,
        "other": 1550,
        "show": 1551,
        "let": 1552,
        "want": 1553,
        "बेश": 1554,
        "##pen": 1555,
        "##ble": 1556,
        "time": 1557,
        "##डर": 1558,
        "स्थ": 1559,
        "ple": 1560,
        "जी": 1561,
        "pun": 1562,
        "बी": 1563,
        "सिवा": 1564,
        "उनमें": 1565,
        "select": 1566,
        "मू": 1567,
        "add": 1568,
        "##ue": 1569,
        "thou": 1570,
        "follow": 1571,
        "app": 1572,
        "##ite": 1573,
        "men": 1574,
        "बेशक": 1575,
        "दु": 1576,
        "way": 1577,
        "punish": 1578,
        "ठीक": 1579,
        "tw": 1580,
        "##led": 1581,
        "##ap": 1582,
        "##selves": 1583,
        "##काश": 1584,
        "need": 1585,
        "di": 1586,
        "निश्चय": 1587,
        "away": 1588,
        "बै": 1589,
        "##ith": 1590,
        "दा": 1591,
        "##nds": 1592,
        "prop": 1593,
        "मार्ग": 1594,
        "##ोज": 1595,
        "दिल": 1596,
        "##fer": 1597,
        "##ेह": 1598,
        "##te": 1599,
        "चीज़": 1600,
        "बन्द": 1601,
        "##lation": 1602,
        "झु": 1603,
        "दोनों": 1604,
        "आस": 1605,
        "ज़मीन": 1606,
        "##क्ति": 1607,
        "verily": 1608,
        "ret": 1609,
        "##ज्ञ": 1610,
        "except": 1611,
        "acc": 1612,
        "ke": 1613,
        "##वाला": 1614,
        "##ough": 1615,
        "ऐसा": 1616,
        "तुमसे": 1617,
        "lif": 1618,
        "get": 1619,
        "her": 1620,
        "##योग": 1621,
        "##ड़ी": 1622,
        "##ये": 1623,
        "##ep": 1624,
        "##िका": 1625,
        "##wn": 1626,
        "list": 1627,
        "cert": 1628,
        "take": 1629,
        "##oin": 1630,
        "option": 1631,
        "reve": 1632,
        "रूप": 1633,
        "mu": 1634,
        "into": 1635,
        "cle": 1636,
        "क्ष": 1637,
        "आद": 1638,
        "अधिक": 1639,
        "कै": 1640,
        "##ac": 1641,
        "##ory": 1642,
        "##ence": 1643,
        "मगर": 1644,
        "ख़ुदा": 1645,
        "against": 1646,
        "##संद": 1647,
        "दर": 1648,
        "##ब्": 1649,
        "##िन": 1650,
        "सुन": 1651,
        "ask": 1652,
        "##other": 1653,
        "समय": 1654,
        "ज़र": 1655,
        "just": 1656,
        "यही": 1657,
        "किए": 1658,
        "##त्य": 1659,
        "##ख़": 1660,
        "hel": 1661,
        "evil": 1662,
        "life": 1663,
        "लग": 1664,
        "guid": 1665,
        "war": 1666,
        "##रती": 1667,
        "##ning": 1668,
        "निर्": 1669,
        "##00": 1670,
        "इनकार": 1671,
        "fold": 1672,
        "##ost": 1673,
        "अपना": 1674,
        "##ail": 1675,
        "मान": 1676,
        "##ेर": 1677,
        "व्य": 1678,
        "qu": 1679,
        "चाहता": 1680,
        "धरती": 1681,
        "जै": 1682,
        "##name": 1683,
        "उनका": 1684,
        "##ild": 1685,
        "heart": 1686,
        "हमारी": 1687,
        "##जी": 1688,
        "part": 1689,
        "inf": 1690,
        "पता": 1691,
        "message": 1692,
        "##्री": 1693,
        "परि": 1694,
        "इसमें": 1695,
        "उसमें": 1696,
        "##ang": 1697,
        "##दी": 1698,
        "wrong": 1699,
        "help": 1700,
        "उत": 1701,
        "mar": 1702,
        "##ाम": 1703,
        "##ौम": 1704,
        "यक़": 1705,
        "हाल": 1706,
        "##ug": 1707,
        "its": 1708,
        "sin": 1709,
        "##िम": 1710,
        "these": 1711,
        "don": 1712,
        "##ुट": 1713,
        "तुमने": 1714,
        "चीज़": 1715,
        "##ls": 1716,
        "##ोल्डर": 1717,
        "मिल": 1718,
        "##न्तु": 1719,
        "##ks": 1720,
        "##ुनिया": 1721,
        "rep": 1722,
        "बाह": 1723,
        "कहते": 1724,
        "fl": 1725,
        "जानता": 1726,
        "now": 1727,
        "लगा": 1728,
        "##स्ते": 1729,
        "##orm": 1730,
        "##af": 1731,
        "heavens": 1732,
        "घर": 1733,
        "er": 1734,
        "हुई": 1735,
        "world": 1736,
        "##ient": 1737,
        "सह": 1738,
        "##ड़े": 1739,
        "##ult": 1740,
        "चाहते": 1741,
        "देता": 1742,
        "##ought": 1743,
        "##ुल": 1744,
        "हमें": 1745,
        "##स्ता": 1746,
        "##ror": 1747,
        "##ather": 1748,
        "punishment": 1749,
        "दुनिया": 1750,
        "##str": 1751,
        "str": 1752,
        "command": 1753,
        "यातना": 1754,
        "two": 1755,
        "अं": 1756,
        "##ally": 1757,
        "जिन्ह": 1758,
        "##act": 1759,
        "स्व": 1760,
        "##टर": 1761,
        "##xt": 1762,
        ".”": 1763,
        "##दान": 1764,
        "##ख्त": 1765,
        "##ated": 1766,
        "even": 1767,
        "##ages": 1768,
        "लगे": 1769,
        "##भा": 1770,
        "believers": 1771,
        "##टी": 1772,
        "##दर्": 1773,
        "##ठला": 1774,
        "बल्": 1775,
        "might": 1776,
        "मद": 1777,
        "निश": 1778,
        "##ship": 1779,
        "things": 1780,
        "##ious": 1781,
        "##ओं": 1782,
        "मूसा": 1783,
        "dr": 1784,
        "signs": 1785,
        "गिर": 1786,
        "##शा": 1787,
        "जाता": 1788,
        "बल्कि": 1789,
        "##ars": 1790,
        "जिसने": 1791,
        "##not": 1792,
        "आए": 1793,
        "सर्": 1794,
        "##ens": 1795,
        "ते": 1796,
        "open": 1797,
        "आयत": 1798,
        "##द्ध": 1799,
        "##वालों": 1800,
        "messenger": 1801,
        "##र्थ": 1802,
        "fire": 1803,
        "होंगे": 1804,
        "##ull": 1805,
        "झुठला": 1806,
        "fil": 1807,
        "##लग": 1808,
        "great": 1809,
        "नी": 1810,
        "आग": 1811,
        "created": 1812,
        "##गें": 1813,
        "##ूं": 1814,
        "em": 1815,
        "तुमको": 1816,
        "आहे": 1817,
        "फ़ोल्डर": 1818,
        "cre": 1819,
        "दूसरे": 1820,
        "##्रे": 1821,
        "होता": 1822,
        "given": 1823,
        "करेगा": 1824,
        "अतः": 1825,
        "clear": 1826,
        "जिसे": 1827,
        "राह": 1828,
        "निस्": 1829,
        "ap": 1830,
        "##ूब": 1831,
        "forgi": 1832,
        "find": 1833,
        "अस": 1834,
        "'%": 1835,
        "हुक्": 1836,
        "error": 1837,
        "वक्त": 1838,
        "आया": 1839,
        "##डी": 1840,
        "लाए": 1841,
        "डि": 1842,
        "पि": 1843,
        "मेरा": 1844,
        "वर्": 1845,
        "faith": 1846,
        "उसको": 1847,
        "well": 1848,
        "मर": 1849,
        "मह": 1850,
        "##ia": 1851,
        "more": 1852,
        "##ून": 1853,
        "बर": 1854,
        "##तान": 1855,
        "इसके": 1856,
        "##नाह": 1857,
        "den": 1858,
        "##lic": 1859,
        "cannot": 1860,
        "##िप": 1861,
        "best": 1862,
        "चाहिए": 1863,
        "बारे": 1864,
        "because": 1865,
        "certain": 1866,
        "##िस": 1867,
        "ca": 1868,
        "बार": 1869,
        "return": 1870,
        "cur": 1871,
        "आसमान": 1872,
        "##ूम": 1873,
        "##स्थ": 1874,
        "हुक्म": 1875,
        "ph": 1876,
        "बड़ा": 1877,
        "wom": 1878,
        "बुरा": 1879,
        "came": 1880,
        "बेह": 1881,
        "never": 1882,
        "##ft": 1883,
        "folder": 1884,
        "##श्य": 1885,
        "##ick": 1886,
        "off": 1887,
        "मौज": 1888,
        "##ाली": 1889,
        "पीछ": 1890,
        "कम": 1891,
        "while": 1892,
        "par": 1893,
        "sub": 1894,
        "thee": 1895,
        "##र्क": 1896,
        "fir": 1897,
        "सामने": 1898,
        "##किन": 1899,
        "##old": 1900,
        "किन्तु": 1901,
        "##amm": 1902,
        "जह": 1903,
        "अच्छे": 1904,
        "बो": 1905,
        "कृ": 1906,
        "wat": 1907,
        "deed": 1908,
        "वास्ते": 1909,
        "sec": 1910,
        "##वे": 1911,
        "कहने": 1912,
        "##ाप्त": 1913,
        "##र्द": 1914,
        "फर": 1915,
        "सभी": 1916,
        "##read": 1917,
        "bring": 1918,
        "द्व": 1919,
        "##्म": 1920,
        "kg": 1921,
        "##ष्": 1922,
        "आकाश": 1923,
        "##ove": 1924,
        "##लो": 1925,
        "\"%": 1926,
        "तु": 1927,
        "):": 1928,
        "##ween": 1929,
        "save": 1930,
        "hearts": 1931,
        "between": 1932,
        "##ph": 1933,
        "बैठ": 1934,
        "dec": 1935,
        "गई": 1936,
        "वहाँ": 1937,
        "बता": 1938,
        "kgm": 1939,
        "gl": 1940,
        "##iss": 1941,
        "enter": 1942,
        "under": 1943,
        "##gr": 1944,
        "कार्य": 1945,
        "##iew": 1946,
        "लेकिन": 1947,
        "please": 1948,
        "inv": 1949,
        "##जे": 1950,
        "##ions": 1951,
        "used": 1952,
        "pass": 1953,
        "रात": 1954,
        "जानते": 1955,
        "##ोर": 1956,
        "कौ": 1957,
        "##ors": 1958,
        "खोल": 1959,
        "प्राप्त": 1960,
        "##ौर": 1961,
        "माँ": 1962,
        "##फल": 1963,
        "कभी": 1964,
        "remem": 1965,
        "mos": 1966,
        "prom": 1967,
        "##ज़िल": 1968,
        "##राही": 1969,
        "look": 1970,
        "thr": 1971,
        "such": 1972,
        "बदला": 1973,
        "##ोगे": 1974,
        "मार": 1975,
        "use": 1976,
        "wind": 1977,
        "beh": 1978,
        "proph": 1979,
        "##hamm": 1980,
        "##्श": 1981,
        "##ting": 1982,
        "हाथ": 1983,
        "यक़ीन": 1984,
        "##वार": 1985,
        "रही": 1986,
        "प्रति": 1987,
        "pray": 1988,
        "hell": 1989,
        "own": 1990,
        "conf": 1991,
        "सूची": 1992,
        "##iful": 1993,
        "##self": 1994,
        "##thers": 1995,
        "जहन्न": 1996,
        "send": 1997,
        "##वान": 1998,
        "पूछ": 1999,
        "ob": 2000,
        "नाज़िल": 2001,
        "bel": 2002,
        "##चना": 2003,
        "होने": 2004,
        "##ces": 2005,
        "##tle": 2006,
        "##ary": 2007,
        "सारे": 2008,
        "##ian": 2009,
        "deeds": 2010,
        "inc": 2011,
        "कौन": 2012,
        "rel": 2013,
        "##र्फ": 2014,
        "themselves": 2015,
        "पीछे": 2016,
        "उठा": 2017,
        "worship": 2018,
        "##िंग": 2019,
        "क्योंकि": 2020,
        "देते": 2021,
        "गुनाह": 2022,
        "मदद": 2023,
        "जीव": 2024,
        "##ैर": 2025,
        "निस्संद": 2026,
        "##ower": 2027,
        "निस्संदेह": 2028,
        "ro": 2029,
        "चुन": 2030,
        "##यी": 2031,
        "##of": 2032,
        "हाँ": 2033,
        "बनाया": 2034,
        "##ंच": 2035,
        "##ations": 2036,
        "night": 2037,
        "जाने": 2038,
        "--": 2039,
        "प्रकार": 2040,
        "ll": 2041,
        "##यन": 2042,
        "##यामत": 2043,
        "prophet": 2044,
        "##दे": 2045,
        "बाहर": 2046,
        "another": 2047,
        "##ons": 2048,
        "mercy": 2049,
        "स्त": 2050,
        "think": 2051,
        "##ty": 2052,
        "prov": 2053,
        "आख़": 2054,
        "##ition": 2055,
        "##ात": 2056,
        "reward": 2057,
        "sl": 2058,
        "##ledge": 2059,
        "भर": 2060,
        "सच्": 2061,
        "पूर्": 2062,
        "रखते": 2063,
        "col": 2064,
        "why": 2065,
        "##ूत": 2066,
        "##ेल": 2067,
        "child": 2068,
        "इसे": 2069,
        "बन": 2070,
        "##les": 2071,
        "बदल": 2072,
        "def": 2073,
        "दया": 2074,
        "लौ": 2075,
        "##वाले": 2076,
        "certainly": 2077,
        "cr": 2078,
        "##rect": 2079,
        "dest": 2080,
        "##स्क": 2081,
        "knowledge": 2082,
        "##ode": 2083,
        "देगा": 2084,
        "##den": 2085,
        "##स्ट": 2086,
        "झू": 2087,
        "##ड़ा": 2088,
        "optional": 2089,
        "path": 2090,
        "क़यामत": 2091,
        "किस": 2092,
        "##सार": 2093,
        "##eth": 2094,
        "##og": 2095,
        "##ised": 2096,
        "##लत": 2097,
        "##ait": 2098,
        "##ably": 2099,
        "क्षमा": 2100,
        "##क्षा": 2101,
        "##हरा": 2102,
        "reveal": 2103,
        "jud": 2104,
        "##सर": 2105,
        "सिर्फ": 2106,
        "द्वारा": 2107,
        "##ific": 2108,
        "पैग़": 2109,
        "रहो": 2110,
        "सो": 2111,
        "unt": 2112,
        "work": 2113,
        "##वर्": 2114,
        "supp": 2115,
        "dev": 2116,
        "##ुष": 2117,
        "moses": 2118,
        "वालों": 2119,
        "##ren": 2120,
        "लिख": 2121,
        "मी": 2122,
        "##erm": 2123,
        "##aug": 2124,
        "##र्म": 2125,
        "tell": 2126,
        "tor": 2127,
        "उनपर": 2128,
        "muhamm": 2129,
        "sou": 2130,
        "knows": 2131,
        "att": 2132,
        "muhammad": 2133,
        "तब": 2134,
        "ज़ि": 2135,
        "होगी": 2136,
        "##ub": 2137,
        "प्रदान": 2138,
        "##ci": 2139,
        "##ट्ट": 2140,
        "चुके": 2141,
        "गुम": 2142,
        "##ंक": 2143,
        "##पी": 2144,
        "भला": 2145,
        "word": 2146,
        "इससे": 2147,
        "पहुँचा": 2148,
        "पूरा": 2149,
        "आगे": 2150,
        "##igh": 2151,
        "चाहे": 2152,
        "id": 2153,
        "hear": 2154,
        "ve": 2155,
        "मत": 2156,
        "छोड़": 2157,
        "पानी": 2158,
        "##ify": 2159,
        "hath": 2160,
        "बाप": 2161,
        "##म्बर": 2162,
        "त्र": 2163,
        "translation": 2164,
        "##िज़": 2165,
        "जग": 2166,
        "window": 2167,
        "जाएँगे": 2168,
        "##ange": 2169,
        "##ल्म": 2170,
        "##्न": 2171,
        "तौ": 2172,
        "स्प": 2173,
        "act": 2174,
        "आदमी": 2175,
        "##aw": 2176,
        "निशान": 2177,
        "ed": 2178,
        "शै": 2179,
        "disc": 2180,
        "##्रा": 2181,
        "place": 2182,
        "##ants": 2183,
        "इन्": 2184,
        "##eous": 2185,
        "शु": 2186,
        "##ither": 2187,
        "thy": 2188,
        "remember": 2189,
        "yet": 2190,
        "imp": 2191,
        "##यं": 2192,
        "यक़ीनन": 2193,
        "रु": 2194,
        "नीचे": 2195,
        "until": 2196,
        "##ts": 2197,
        "बढ़": 2198,
        "करके": 2199,
        "पुकार": 2200,
        "मन": 2201,
        "जबकि": 2202,
        "शख": 2203,
        "prob": 2204,
        "शख्स": 2205,
        "##arch": 2206,
        "निकाल": 2207,
        "##ize": 2208,
        "बड़ा": 2209,
        "करेंगे": 2210,
        "##ff": 2211,
        "##वाह": 2212,
        "बीच": 2213,
        "end": 2214,
        "जोड़": 2215,
        "##ood": 2216,
        "दें": 2217,
        "ac": 2218,
        "पं": 2219,
        "देखा": 2220,
        "ord": 2221,
        "##per": 2222,
        "land": 2223,
        "कुफ": 2224,
        "probably": 2225,
        "merciful": 2226,
        "##li": 2227,
        "therein": 2228,
        "कहो": 2229,
        "mon": 2230,
        "better": 2231,
        "व्यक्ति": 2232,
        "inter": 2233,
        "!\"": 2234,
        "sy": 2235,
        "##ener": 2236,
        "mat": 2237,
        "wit": 2238,
        "##ents": 2239,
        "found": 2240,
        "##िब": 2241,
        "मैंने": 2242,
        "##ution": 2243,
        "po": 2244,
        "##यार": 2245,
        "जगह": 2246,
        "start": 2247,
        "पैग़म्बर": 2248,
        "चि": 2249,
        "pres": 2250,
        "क़ौम": 2251,
        "##ob": 2252,
        "warn": 2253,
        "keep": 2254,
        "image": 2255,
        "##कारी": 2256,
        "fail": 2257,
        "many": 2258,
        "##चार": 2259,
        "leave": 2260,
        "##ृत": 2261,
        "##िला": 2262,
        "त्रुट": 2263,
        "कर्म": 2264,
        "ऊपर": 2265,
        "कहीं": 2266,
        "चयन": 2267,
        "##धे": 2268,
        "##इन": 2269,
        "गो": 2270,
        "अच्छी": 2271,
        "whe": 2272,
        "read": 2273,
        "##बान": 2274,
        "जाते": 2275,
        "भेजा": 2276,
        "##नेवाला": 2277,
        "होकर": 2278,
        "create": 2279,
        "num": 2280,
        "ख़ु": 2281,
        "रखो": 2282,
        "रखा": 2283,
        "##ज़ी": 2284,
        "inform": 2285,
        "दूर": 2286,
        "##soever": 2287,
        "pos": 2288,
        "power": 2289,
        "nothing": 2290,
        "##ाब": 2291,
        "got": 2292,
        "women": 2293,
        "##बाद": 2294,
        "forth": 2295,
        "righteous": 2296,
        "witness": 2297,
        "जाना": 2298,
        "##था": 2299,
        "##लिए": 2300,
        "gard": 2301,
        "ange": 2302,
        "##ंत": 2303,
        "होते": 2304,
        "each": 2305,
        "ज्या": 2306,
        "##ँह": 2307,
        "शी": 2308,
        "##ica": 2309,
        "मिटा": 2310,
        "##after": 2311,
        "##माण": 2312,
        "ins": 2313,
        "पस": 2314,
        "hum": 2315,
        "##city": 2316,
        "##ष्ठ": 2317,
        "छवि": 2318,
        "हक़": 2319,
        "val": 2320,
        "आयतों": 2321,
        "##िरत": 2322,
        "निकल": 2323,
        "रंग": 2324,
        "मुँह": 2325,
        "सहेज": 2326,
        "कॉ": 2327,
        "##up": 2328,
        "##cri": 2329,
        "##ire": 2330,
        "files": 2331,
        "##ोह": 2332,
        "अग": 2333,
        "##lete": 2334,
        "ज्ञ": 2335,
        "क्र": 2336,
        "others": 2337,
        "आज": 2338,
        "##ज्ञा": 2339,
        "इसी": 2340,
        "##यान": 2341,
        "whoever": 2342,
        "selected": 2343,
        "इब": 2344,
        "चुका": 2345,
        "सका": 2346,
        "whether": 2347,
        "cause": 2348,
        "दृ": 2349,
        "##हाय": 2350,
        "account": 2351,
        "##ains": 2352,
        "revealed": 2353,
        "##नेवाले": 2354,
        "##लाम": 2355,
        "##av": 2356,
        "che": 2357,
        "##वल": 2358,
        "unbelie": 2359,
        "नमा": 2360,
        "##ैस": 2361,
        "true": 2362,
        "without": 2363,
        "##iv": 2364,
        "car": 2365,
        "##red": 2366,
        "देखो": 2367,
        "##rent": 2368,
        "ass": 2369,
        "search": 2370,
        "##क्स": 2371,
        "last": 2372,
        "pat": 2373,
        "qur": 2374,
        "guidance": 2375,
        "##its": 2376,
        "त्रुटि": 2377,
        "##ंट": 2378,
        "##ंध": 2379,
        "##ट्टी": 2380,
        "दिखाएँ": 2381,
        "हे": 2382,
        ":%": 2383,
        "सबसे": 2384,
        "serv": 2385,
        "कृप": 2386,
        "messengers": 2387,
        "##less": 2388,
        "rest": 2389,
        "अत्य": 2390,
        "आपको": 2391,
        "रोक": 2392,
        "whatever": 2393,
        "ईमानदार": 2394,
        "none": 2395,
        "brought": 2396,
        "##ides": 2397,
        "##ेशा": 2398,
        "put": 2399,
        "औरत": 2400,
        "संप": 2401,
        "gra": 2402,
        "##bey": 2403,
        "##सम": 2404,
        "शक": 2405,
        "सहाय": 2406,
        "water": 2407,
        "gave": 2408,
        "##aught": 2409,
        "form": 2410,
        "ty": 2411,
        "##arm": 2412,
        "कारण": 2413,
        "##ूट": 2414,
        "saw": 2415,
        "##ियो": 2416,
        "##ेक": 2417,
        "vers": 2418,
        "##ates": 2419,
        "fav": 2420,
        "##वाब": 2421,
        "view": 2422,
        "appoin": 2423,
        "विष": 2424,
        "children": 2425,
        "au": 2426,
        "full": 2427,
        "ref": 2428,
        "इसलिए": 2429,
        "##पाद": 2430,
        "दिए": 2431,
        "bre": 2432,
        "##कुल": 2433,
        "mail": 2434,
        "ra": 2435,
        "too": 2436,
        "झूठ": 2437,
        "##ूह": 2438,
        "##रज़": 2439,
        "भाई": 2440,
        "##लब": 2441,
        "messages": 2442,
        "wise": 2443,
        "current": 2444,
        "कृपया": 2445,
        "जिसके": 2446,
        "##bo": 2447,
        "##uck": 2448,
        "##day": 2449,
        "##हत": 2450,
        "##धार": 2451,
        "विन": 2452,
        "नया": 2453,
        "मोम": 2454,
        "edit": 2455,
        "चुनें": 2456,
        "पहुँच": 2457,
        "जहन्नुम": 2458,
        "light": 2459,
        "बोल": 2460,
        "##पस": 2461,
        "##oup": 2462,
        "सद": 2463,
        "##ont": 2464,
        "##ene": 2465,
        "बचा": 2466,
        "##बत": 2467,
        "अत्यन्त": 2468,
        "##ालिम": 2469,
        "करा": 2470,
        "##ute": 2471,
        "सूचना": 2472,
        "छोड़": 2473,
        "ज़रूर": 2474,
        "underst": 2475,
        "फरमा": 2476,
        "अभी": 2477,
        "left": 2478,
        "inst": 2479,
        "चा": 2480,
        "थो": 2481,
        "rece": 2482,
        "prev": 2483,
        "बंद": 2484,
        "लेकर": 2485,
        "aff": 2486,
        "चला": 2487,
        "##कट": 2488,
        "##वास": 2489,
        "thus": 2490,
        "dif": 2491,
        "##तन": 2492,
        "kill": 2493,
        "सख्त": 2494,
        "first": 2495,
        "##com": 2496,
        "going": 2497,
        "speak": 2498,
        "##ंभ": 2499,
        "जिनके": 2500,
        "पक": 2501,
        "हमेशा": 2502,
        "address": 2503,
        "gener": 2504,
        "head": 2505,
        "सर्वर": 2506,
        "तुझ": 2507,
        "##br": 2508,
        "जिन्होंने": 2509,
        "deny": 2510,
        "auth": 2511,
        "##ict": 2512,
        "##oh": 2513,
        "angels": 2514,
        "विषय": 2515,
        "##ument": 2516,
        "##air": 2517,
        "एह": 2518,
        "##ैन": 2519,
        "seek": 2520,
        "##ew": 2521,
        "##ंडो": 2522,
        "##ced": 2523,
        "लगता": 2524,
        "प्": 2525,
        "##na": 2526,
        "tak": 2527,
        "sm": 2528,
        "##सल": 2529,
        "##रत": 2530,
        "being": 2531,
        "text": 2532,
        "##-#": 2533,
        "server": 2534,
        "##िश्त": 2535,
        "बन्दों": 2536,
        "हाला": 2537,
        "उत्त": 2538,
        "बयान": 2539,
        "##alk": 2540,
        "contact": 2541,
        "##de": 2542,
        "sk": 2543,
        "mus": 2544,
        "##urre": 2545,
        "बढ़": 2546,
        "av": 2547,
        "son": 2548,
        "exp": 2549,
        "torment": 2550,
        "wait": 2551,
        "reg": 2552,
        "बुला": 2553,
        "मिला": 2554,
        "##सान": 2555,
        "जल्": 2556,
        "tas": 2557,
        "failed": 2558,
        "##त्व": 2559,
        "रखता": 2560,
        "ऐसी": 2561,
        "##दू": 2562,
        "अता": 2563,
        "गिरोह": 2564,
        "##एं": 2565,
        "जाती": 2566,
        "मालूम": 2567,
        "sw": 2568,
        "##णी": 2569,
        "understand": 2570,
        "run": 2571,
        "विंडो": 2572,
        "love": 2573,
        "बरा": 2574,
        "##प्त": 2575,
        "play": 2576,
        "sat": 2577,
        "जैसे": 2578,
        "विक": 2579,
        "disbelieve": 2580,
        "##राहीम": 2581,
        "also": 2582,
        "forgiving": 2583,
        "जीवन": 2584,
        "डाक": 2585,
        "must": 2586,
        "dou": 2587,
        "##oc": 2588,
        "whose": 2589,
        "unbelievers": 2590,
        "वै": 2591,
        "check": 2592,
        "bes": 2593,
        ".'": 2594,
        "लें": 2595,
        "ख़ा": 2596,
        "##ope": 2597,
        "प्रमाण": 2598,
        "##िति": 2599,
        "direct": 2600,
        "kind": 2601,
        "##kind": 2602,
        "वापस": 2603,
        "##ल्प": 2604,
        "इबराहीम": 2605,
        "pur": 2606,
        "loc": 2607,
        "समा": 2608,
        "प्रभ": 2609,
        "कमा": 2610,
        "तुमपर": 2611,
        "तुममें": 2612,
        "ठहरा": 2613,
        "##cer": 2614,
        "dat": 2615,
        "belong": 2616,
        "##ib": 2617,
        "char": 2618,
        "cop": 2619,
        "##्रह": 2620,
        "##बे": 2621,
        "ey": 2622,
        "##वाद": 2623,
        "eat": 2624,
        "requ": 2625,
        "##fe": 2626,
        "शैतान": 2627,
        "number": 2628,
        "lit": 2629,
        "##ूप": 2630,
        "mankind": 2631,
        "##औन": 2632,
        "संपाद": 2633,
        "death": 2634,
        "##just": 2635,
        "##ouse": 2636,
        "##ret": 2637,
        "peace": 2638,
        "revelation": 2639,
        "##aste": 2640,
        "toward": 2641,
        "200": 2642,
        "long": 2643,
        "##als": 2644,
        "प्रयोग": 2645,
        "home": 2646,
        "saying": 2647,
        "प्रत्य": 2648,
        "वाय": 2649,
        "astr": 2650,
        "ग़रज़": 2651,
        "bene": 2652,
        "बराबर": 2653,
        "देखते": 2654,
        "hereafter": 2655,
        "##ोन": 2656,
        "##ंस": 2657,
        "संपर्क": 2658,
        "wish": 2659,
        "hand": 2660,
        "##ज्य": 2661,
        "##तः": 2662,
        "##स्म": 2663,
        "project": 2664,
        "move": 2665,
        "##र्च": 2666,
        "तै": 2667,
        "वाक़": 2668,
        "बाज़": 2669,
        "##करण": 2670,
        "mak": 2671,
        "##ैसला": 2672,
        "##ible": 2673,
        "केवल": 2674,
        "मेहर": 2675,
        "##ified": 2676,
        "रहेंगे": 2677,
        "##ोट": 2678,
        "ok": 2679,
        "उपयोग": 2680,
        "disbelievers": 2681,
        "ज्यादा": 2682,
        "det": 2683,
        "जिन्हें": 2684,
        "through": 2685,
        "##िश्": 2686,
        "जाएगी": 2687,
        "knowing": 2688,
        "बड़ी": 2689,
        "##ited": 2690,
        "पुर": 2691,
        "स्पष्ट": 2692,
        "##lish": 2693,
        "##न्दा": 2694,
        "स्वयं": 2695,
        "therefore": 2696,
        "group": 2697,
        "##ोजना": 2698,
        "##राम": 2699,
        "पूरी": 2700,
        "फेर": 2701,
        "करनेवालों": 2702,
        "##play": 2703,
        "astray": 2704,
        "मौजूद": 2705,
        "जिसमें": 2706,
        "become": 2707,
        "##दायत": 2708,
        "हिदायत": 2709,
        "##रीब": 2710,
        "सम्": 2711,
        "बातें": 2712,
        "apost": 2713,
        "free": 2714,
        "अभ": 2715,
        "काफ": 2716,
        "मुक़": 2717,
        "कुफ्": 2718,
        "##roy": 2719,
        "##तनी": 2720,
        "support": 2721,
        "नसी": 2722,
        "stand": 2723,
        "meet": 2724,
        "information": 2725,
        "##ond": 2726,
        "##ूर्": 2727,
        "bless": 2728,
        "##धा": 2729,
        "##ready": 2730,
        "already": 2731,
        "##ब्द": 2732,
        "destroy": 2733,
        "neither": 2734,
        "cons": 2735,
        "##ision": 2736,
        "होती": 2737,
        "##ash": 2738,
        "##pect": 2739,
        "##ock": 2740,
        "देने": 2741,
        "very": 2742,
        "नाही": 2743,
        "दिलों": 2744,
        "##mit": 2745,
        "हमारा": 2746,
        "आकाशों": 2747,
        "क़ौम": 2748,
        "##र्ष": 2749,
        "##ूरत": 2750,
        "both": 2751,
        "##श्चा": 2752,
        "everything": 2753,
        "##्ल": 2754,
        "पृ": 2755,
        "##bar": 2756,
        "remove": 2757,
        "बड़ी": 2758,
        "डिस्क": 2759,
        "##प्र": 2760,
        "##ित्र": 2761,
        "बच्": 2762,
        "order": 2763,
        "cor": 2764,
        "test": 2765,
        "जर": 2766,
        "डाला": 2767,
        "पश्चा": 2768,
        "accept": 2769,
        "little": 2770,
        "done": 2771,
        "high": 2772,
        "पत्": 2773,
        "##्हीं": 2774,
        "##र्य": 2775,
        "चयनित": 2776,
        "..": 2777,
        "डे": 2778,
        "ht": 2779,
        "##ead": 2780,
        "pleas": 2781,
        "आई": 2782,
        "##ेष": 2783,
        "खेल": 2784,
        "anything": 2785,
        "##ुक": 2786,
        "##िरों": 2787,
        "काफ़": 2788,
        "पाठ": 2789,
        "relig": 2790,
        "नसीहत": 2791,
        "सही": 2792,
        "कैसे": 2793,
        "hands": 2794,
        "reject": 2795,
        "near": 2796,
        "##डे": 2797,
        "key": 2798,
        "डरा": 2799,
        "mighty": 2800,
        "##यू": 2801,
        "पढ़": 2802,
        "##ial": 2803,
        "चले": 2804,
        "bu": 2805,
        "##्ते": 2806,
        "सज": 2807,
        "hour": 2808,
        "देंगे": 2809,
        "display": 2810,
        "घा": 2811,
        "trust": 2812,
        "dist": 2813,
        "##cess": 2814,
        "पश्चात": 2815,
        "वास्त": 2816,
        "guard": 2817,
        "##ows": 2818,
        "father": 2819,
        "##लट": 2820,
        "though": 2821,
        "prot": 2822,
        "resp": 2823,
        "##नेवालों": 2824,
        "turned": 2825,
        "चौ": 2826,
        "खोज": 2827,
        "बख": 2828,
        "dead": 2829,
        "##ained": 2830,
        "##मेर": 2831,
        "बहु": 2832,
        "दोस्त": 2833,
        "##गाह": 2834,
        "सेट": 2835,
        "एव": 2836,
        "mis": 2837,
        "निशानियाँ": 2838,
        "##word": 2839,
        "type": 2840,
        "##क्ट": 2841,
        "स्थान": 2842,
        "],": 2843,
        "सुना": 2844,
        "##यों": 2845,
        "##lend": 2846,
        "something": 2847,
        "_s": 2848,
        "जहाँ": 2849,
        "##urrection": 2850,
        "##पन": 2851,
        "प्रकाश": 2852,
        "##ख़्श": 2853,
        "##idden": 2854,
        "resurrection": 2855,
        "माम": 2856,
        "आपके": 2857,
        "dra": 2858,
        "(%": 2859,
        "बिल्": 2860,
        "obey": 2861,
        "क़ुर": 2862,
        "##ोर्": 2863,
        "वास्तव": 2864,
        "believed": 2865,
        "आदेश": 2866,
        "chang": 2867,
        "##ara": 2868,
        "विश्": 2869,
        "बड़े": 2870,
        "##ज़र": 2871,
        "frie": 2872,
        "##डियो": 2873,
        "##nect": 2874,
        "##ided": 2875,
        "बदले": 2876,
        "##शील": 2877,
        "##तने": 2878,
        "prayer": 2879,
        "mount": 2880,
        "much": 2881,
        "promise": 2882,
        "protect": 2883,
        "लड़": 2884,
        "तैयार": 2885,
        "शि": 2886,
        "guide": 2887,
        "अलग": 2888,
        "ली": 2889,
        "##एगा": 2890,
        "soul": 2891,
        "##oy": 2892,
        "gardens": 2893,
        "pers": 2894,
        "##gress": 2895,
        "##way": 2896,
        "शरी": 2897,
        "##par": 2898,
        "##ault": 2899,
        "कहेंगे": 2900,
        "पढ़": 2901,
        "thing": 2902,
        "##धी": 2903,
        "बेहतर": 2904,
        "fight": 2905,
        "color": 2906,
        "उठ": 2907,
        "##ुल्म": 2908,
        "पाक": 2909,
        "##ेगा": 2910,
        "##gether": 2911,
        "##ेट": 2912,
        "##पि": 2913,
        "लड़": 2914,
        "##धि": 2915,
        "##एँगे": 2916,
        "mod": 2917,
        "अमेर": 2918,
        "यु": 2919,
        "yourselves": 2920,
        "क़ुरान": 2921,
        "##ध्य": 2922,
        "old": 2923,
        "##मन": 2924,
        "ones": 2925,
        "हरग": 2926,
        "yes": 2927,
        "##miss": 2928,
        "##्रो": 2929,
        "हरगिज़": 2930,
        "happ": 2931,
        "poss": 2932,
        "min": 2933,
        "प्रार": 2934,
        "बातों": 2935,
        "सरक": 2936,
        "हिस्": 2937,
        "##soci": 2938,
        "##त्या": 2939,
        "##िले": 2940,
        "religion": 2941,
        "##माल": 2942,
        "सच्चे": 2943,
        "सज़ा": 2944,
        "amer": 2945,
        "फाइल": 2946,
        "_f": 2947,
        "##्वाह": 2948,
        "जोड़ें": 2949,
        "त्या": 2950,
        "##ouch": 2951,
        "हटा": 2952,
        "##ष्टि": 2953,
        "##ix": 2954,
        "pra": 2955,
        "आओ": 2956,
        "##gn": 2957,
        "guided": 2958,
        "भाग": 2959,
        "##बूद": 2960,
        "तरफ़": 2961,
        "रहने": 2962,
        ".’": 2963,
        "user": 2964,
        "##िश्ते": 2965,
        "load": 2966,
        "चाल": 2967,
        "##द्य": 2968,
        "##्यू": 2969,
        "वज": 2970,
        "आने": 2971,
        "mem": 2972,
        "शक़": 2973,
        "छु": 2974,
        "##ँकि": 2975,
        "आर": 2976,
        "बख्श": 2977,
        "जमा": 2978,
        "hard": 2979,
        "##-#-#": 2980,
        "brother": 2981,
        "मोह": 2982,
        "वाक़ि": 2983,
        "chast": 2984,
        "चलो": 2985,
        "बैठे": 2986,
        "हालाँकि": 2987,
        "खुद": 2988,
        "associ": 2989,
        "##ark": 2990,
        "copy": 2991,
        "##ple": 2992,
        "लेते": 2993,
        "equ": 2994,
        "##ॉग": 2995,
        "##ating": 2996,
        "##ugin": 2997,
        "doub": 2998,
        "##श्त": 2999,
        "bear": 3000,
        "पृष्ठ": 3001,
        "term": 3002,
        "पड़": 3003,
        "##ुब": 3004,
        "उन्हीं": 3005,
        "जादू": 3006,
        "तथा": 3007,
        "tom": 3008,
        "ति": 3009,
        "झुठलाया": 3010,
        "##ख्या": 3011,
        "सत्य": 3012,
        "##rib": 3013,
        "पाल": 3014,
        "himself": 3015,
        "forgiven": 3016,
        "change": 3017,
        "##द्द": 3018,
        "_d": 3019,
        "wo": 3020,
        "फ़र": 3021,
        "बस्त": 3022,
        "##रों": 3023,
        "doing": 3024,
        "माबूद": 3025,
        "आकार": 3026,
        "पड़े": 3027,
        "reach": 3028,
        "##बंध": 3029,
        "प्रत्येक": 3030,
        ".)": 3031,
        "इबाद": 3032,
        "try": 3033,
        "able": 3034,
        "शा": 3035,
        "##ne": 3036,
        "##त्ता": 3037,
        "judge": 3038,
        "##ंत्र": 3039,
        "behind": 3040,
        "aut": 3041,
        "phara": 3042,
        "शख़्श": 3043,
        "##टक": 3044,
        "##\\\\": 3045,
        "cho": 3046,
        "##cl": 3047,
        "इबादत": 3048,
        "##olution": 3049,
        "data": 3050,
        "तत्व": 3051,
        "##िक्त": 3052,
        "together": 3053,
        "pharaoh": 3054,
        "दीन": 3055,
        "##ज्": 3056,
        "##द्र": 3057,
        "वजह": 3058,
        "स्थिति": 3059,
        "##ज़ी": 3060,
        "##ुरू": 3061,
        "fal": 3062,
        "##alth": 3063,
        "तौबा": 3064,
        "avail": 3065,
        "##reen": 3066,
        "समर्थ": 3067,
        "झग": 3068,
        "alone": 3069,
        "क्ल": 3070,
        "मनुष": 3071,
        "विकल्प": 3072,
        "eyes": 3073,
        "okay": 3074,
        "bar": 3075,
        "action": 3076,
        "##ned": 3077,
        "differ": 3078,
        "burn": 3079,
        "जिसका": 3080,
        "दृश्य": 3081,
        "##line": 3082,
        "जवाब": 3083,
        "लौट": 3084,
        "साल": 3085,
        "सामान": 3086,
        "करनेवाला": 3087,
        "forb": 3088,
        "##tp": 3089,
        "exist": 3090,
        "##owed": 3091,
        "remind": 3092,
        "date": 3093,
        "##ूँगा": 3094,
        "doc": 3095,
        "pain": 3096,
        "plugin": 3097,
        "##well": 3098,
        "##wer": 3099,
        "default": 3100,
        "रे": 3101,
        "##ures": 3102,
        "connect": 3103,
        "उम्": 3104,
        "##नि": 3105,
        "##ened": 3106,
        "ज्ञान": 3107,
        "false": 3108,
        "##rah": 3109,
        "scri": 3110,
        "अक्ष": 3111,
        "साफ": 3112,
        "परिवर्": 3113,
        "आख़िर": 3114,
        "पेश": 3115,
        "भली": 3116,
        "आख़": 3117,
        "अन्य": 3118,
        "enj": 3119,
        "oh": 3120,
        "stay": 3121,
        "##ज़ा": 3122,
        "##क्ता": 3123,
        "concer": 3124,
        "आव": 3125,
        "##प्": 3126,
        "अमेरिका": 3127,
        "##ger": 3128,
        "besides": 3129,
        "अत्या": 3130,
        "जिसकी": 3131,
        "##ोस": 3132,
        "##्याल": 3133,
        "##ंज": 3134,
        "##णाम": 3135,
        "फ़र": 3136,
        "task": 3137,
        "spec": 3138,
        "month": 3139,
        "##ेत्र": 3140,
        "die": 3141,
        "पड़े": 3142,
        "समझते": 3143,
        ",\"": 3144,
        "##ners": 3145,
        "house": 3146,
        "sor": 3147,
        "##lendar": 3148,
        "उसपर": 3149,
        "##vel": 3150,
        "तेरे": 3151,
        "forgiveness": 3152,
        "hast": 3153,
        "##ten": 3154,
        "##लों": 3155,
        "towards": 3156,
        "prin": 3157,
        "america": 3158,
        "##लु": 3159,
        "config": 3160,
        "script": 3161,
        "grie": 3162,
        "##ms": 3163,
        "password": 3164,
        "ऊँ": 3165,
        "_p": 3166,
        "##फा": 3167,
        "comes": 3168,
        "called": 3169,
        "satan": 3170,
        "वी": 3171,
        "स्ट": 3172,
        "##ical": 3173,
        "पिछ": 3174,
        "mor": 3175,
        "abrah": 3176,
        "sim": 3177,
        "##ites": 3178,
        "forgive": 3179,
        "##्ड": 3180,
        "स्क्र": 3181,
        "item": 3182,
        "abraham": 3183,
        "unjust": 3184,
        "ext": 3185,
        "benef": 3186,
        "hold": 3187,
        "##the": 3188,
        "above": 3189,
        "chastise": 3190,
        "told": 3191,
        "years": 3192,
        "वायदा": 3193,
        "ans": 3194,
        "बिल्कुल": 3195,
        "hon": 3196,
        "मज़": 3197,
        "ख़ास": 3198,
        "##put": 3199,
        "law": 3200,
        "##र्र": 3201,
        "repl": 3202,
        "enc": 3203,
        "वाली": 3204,
        "निश्चित": 3205,
        "revelations": 3206,
        "really": 3207,
        "गवाह": 3208,
        "succ": 3209,
        "still": 3210,
        "रौ": 3211,
        "पूर्ण": 3212,
        "drink": 3213,
        "ख्वाह": 3214,
        "हला": 3215,
        "##wor": 3216,
        "मोमि": 3217,
        "document": 3218,
        "माँग": 3219,
        "छि": 3220,
        "अवश्य": 3221,
        "पथ": 3222,
        "##लं": 3223,
        "##ired": 3224,
        "##न्ट": 3225,
        "विर": 3226,
        "count": 3227,
        "अन्त": 3228,
        "आँ": 3229,
        "##शिश": 3230,
        "पुन": 3231,
        "##ments": 3232,
        "गयी": 3233,
        "हूं": 3234,
        "pay": 3235,
        "सहायता": 3236,
        "दुख": 3237,
        "##dom": 3238,
        "est": 3239,
        "संख्या": 3240,
        "खाता": 3241,
        "अह": 3242,
        "प्रा": 3243,
        "##दर्शन": 3244,
        "##oud": 3245,
        "##वाही": 3246,
        "gon": 3247,
        "##दर्श": 3248,
        "##कात": 3249,
        "गुमराही": 3250,
        "sun": 3251,
        "##ual": 3252,
        "next": 3253,
        "##कर्": 3254,
        "##फ़ार": 3255,
        "##ोक्ता": 3256,
        "days": 3257,
        "ri": 3258,
        "##ालिब": 3259,
        "evolution": 3260,
        "_c": 3261,
        "अल": 3262,
        "रहते": 3263,
        "करनेवाले": 3264,
        "ur": 3265,
        "beg": 3266,
        "tre": 3267,
        "##ru": 3268,
        "##वत": 3269,
        "belongs": 3270,
        "##ec": 3271,
        "प्लग": 3272,
        "##्रै": 3273,
        "lead": 3274,
        "छिपा": 3275,
        "कान": 3276,
        "quran": 3277,
        "शीर्ष": 3278,
        "cd": 3279,
        "मिस": 3280,
        "recom": 3281,
        "harm": 3282,
        "दुआ": 3283,
        "परिणाम": 3284,
        "fam": 3285,
        "वादा": 3286,
        "डी": 3287,
        "हालत": 3288,
        "dwell": 3289,
        "##lo": 3290,
        "##athers": 3291,
        "पुरुष": 3292,
        "ent": 3293,
        "##ource": 3294,
        "##inn": 3295,
        "import": 3296,
        "fall": 3297,
        "enem": 3298,
        "wealth": 3299,
        "sett": 3300,
        "दस्ता": 3301,
        "आयतें": 3302,
        "page": 3303,
        "दर्": 3304,
        "हट": 3305,
        "प्रती": 3306,
        "बाग़": 3307,
        "क्षेत्र": 3308,
        "मेहरबान": 3309,
        "छा": 3310,
        "सुर": 3311,
        "कठ": 3312,
        "\".": 3313,
        "].": 3314,
        "##तम": 3315,
        "कोशिश": 3316,
        "delete": 3317,
        "जैसा": 3318,
        "##स्तु": 3319,
        "author": 3320,
        "अनुम": 3321,
        "repent": 3322,
        "sky": 3323,
        "लिये": 3324,
        "appointed": 3325,
        "##्रिय": 3326,
        "पूज्य": 3327,
        "news": 3328,
        "value": 3329,
        "सके": 3330,
        "servants": 3331,
        "gn": 3332,
        "ज़रुर": 3333,
        "##एस": 3334,
        "डरते": 3335,
        "seen": 3336,
        "निशानी": 3337,
        "ईमानदारों": 3338,
        "चार": 3339,
        "state": 3340,
        "सबको": 3341,
        "##ale": 3342,
        "##ॉकि": 3343,
        "##ूदा": 3344,
        "##stem": 3345,
        "bur": 3346,
        "talk": 3347,
        "gonna": 3348,
        "et": 3349,
        "वो": 3350,
        "##ओगे": 3351,
        "साझ": 3352,
        "div": 3353,
        "##पूर्": 3354,
        "बुरी": 3355,
        "live": 3356,
        "los": 3357,
        "##गत": 3358,
        "##ेद": 3359,
        "whosoever": 3360,
        "##क्का": 3361,
        "ख़बर": 3362,
        "ठिक": 3363,
        "##ized": 3364,
        "##ton": 3365,
        "परहे": 3366,
        "सकती": 3367,
        "stop": 3368,
        "जिसको": 3369,
        "##ried": 3370,
        "सहेजें": 3371,
        "##ml": 3372,
        "पसंद": 3373,
        "टै": 3374,
        "अंत": 3375,
        "king": 3376,
        "कहाँ": 3377,
        "पहा": 3378,
        "बनाएँ": 3379,
        "ठिकाना": 3380,
        "##शाली": 3381,
        "हिस्सा": 3382,
        "doubt": 3383,
        "##ोप": 3384,
        "compan": 3385,
        "##यूशन": 3386,
        "होना": 3387,
        "stra": 3388,
        "##बरी": 3389,
        "यूस": 3390,
        "commit": 3391,
        "answer": 3392,
        "line": 3393,
        "कदा": 3394,
        "निर्देश": 3395,
        "स्त्र": 3396,
        "हालॉकि": 3397,
        "cal": 3398,
        "calendar": 3399,
        "मुक़र्र": 3400,
        "सच": 3401,
        "##ोसा": 3402,
        "##हां": 3403,
        "##sc": 3404,
        "##ग़": 3405,
        "concerning": 3406,
        "टॉ": 3407,
        "##ank": 3408,
        "##comment": 3409,
        "गा": 3410,
        "अरे": 3411,
        "वर्ष": 3412,
        "directory": 3413,
        "नमाज़": 3414,
        "जारी": 3415,
        "favour": 3416,
        "##ined": 3417,
        "chastisement": 3418,
        "फै": 3419,
        "##used": 3420,
        "##धान": 3421,
        "मालिक": 3422,
        "दादा": 3423,
        "तुझे": 3424,
        "##vere": 3425,
        "_m": 3426,
        "##do": 3427,
        "यूसु": 3428,
        "##ईल": 3429,
        "चुकी": 3430,
        "भाँ": 3431,
        "जल्दी": 3432,
        "##जू": 3433,
        "##ience": 3434,
        "बेटे": 3435,
        "writ": 3436,
        "judg": 3437,
        "भलाई": 3438,
        "पाया": 3439,
        "##ंदर": 3440,
        "##ोल्यूशन": 3441,
        "##ोध": 3442,
        "##ense": 3443,
        "##्रोत": 3444,
        "incre": 3445,
        "हराम": 3446,
        "##शिया": 3447,
        "##्यास": 3448,
        "##get": 3449,
        "deli": 3450,
        "पार": 3451,
        "##सिल": 3452,
        "जु": 3453,
        "मला": 3454,
        "##ider": 3455,
        "##ols": 3456,
        "आवा": 3457,
        "##ention": 3458,
        "##tern": 3459,
        "##चान": 3460,
        "खोलें": 3461,
        "praise": 3462,
        "##रार": 3463,
        "##ग्रह": 3464,
        "नूह": 3465,
        "दयालु": 3466,
        "ज़ालिम": 3467,
        "##ेंट": 3468,
        "मुसल": 3469,
        "mode": 3470,
        "matter": 3471,
        "bount": 3472,
        "parad": 3473,
        "##io": 3474,
        "face": 3475,
        "took": 3476,
        "hey": 3477,
        "aware": 3478,
        "listen": 3479,
        "apostle": 3480,
        "अर्": 3481,
        "recompen": 3482,
        "three": 3483,
        "##न्दगी": 3484,
        "taste": 3485,
        "##यु": 3486,
        "##ield": 3487,
        "far": 3488,
        "##ँच": 3489,
        "##ities": 3490,
        "लोड": 3491,
        "##िल्": 3492,
        "##दर्शी": 3493,
        "\",": 3494,
        "##ys": 3495,
        "आख़िरत": 3496,
        "गवाही": 3497,
        "means": 3498,
        "system": 3499,
        "##कत": 3500,
        "विश": 3501,
        "भाँति": 3502,
        "unable": 3503,
        "हक़": 3504,
        "##ियान": 3505,
        "मुसलमान": 3506,
        "size": 3507,
        "paradise": 3508,
        "आदम": 3509,
        "कुफ्फ़ार": 3510,
        "##ीनी": 3511,
        "fin": 3512,
        "prostr": 3513,
        "perf": 3514,
        "swe": 3515,
        "##िश्तों": 3516,
        "##ंजी": 3517,
        "etc": 3518,
        "##man": 3519,
        "बनाए": 3520,
        "pub": 3521,
        "##ipp": 3522,
        "yeah": 3523,
        "sch": 3524,
        "##एल": 3525,
        "soon": 3526,
        "transgress": 3527,
        "खूब": 3528,
        "परहेज़": 3529,
        "##ines": 3530,
        "रखें": 3531,
        "सर्व": 3532,
        "भरोसा": 3533,
        "नबी": 3534,
        "##ived": 3535,
        "##पत्र": 3536,
        "##भाव": 3537,
        "port": 3538,
        "##ames": 3539,
        "nation": 3540,
        "kde": 3541,
        "तकली": 3542,
        "##ाबले": 3543,
        "औला": 3544,
        "close": 3545,
        "आयात": 3546,
        "same": 3547,
        "tem": 3548,
        "##पे": 3549,
        "##ड़ी": 3550,
        "आपस": 3551,
        "certific": 3552,
        "doers": 3553,
        "permiss": 3554,
        "ग़ालिब": 3555,
        "मुक़र्रर": 3556,
        "el": 3557,
        "fuck": 3558,
        "watch": 3559,
        "##az": 3560,
        "real": 3561,
        "info": 3562,
        "wills": 3563,
        "दयावान": 3564,
        "एवोल्यूशन": 3565,
        "दयालुता": 3566,
        "success": 3567,
        "##mon": 3568,
        "##ires": 3569,
        "adv": 3570,
        "hy": 3571,
        "##ाहिर": 3572,
        "बुराई": 3573,
        "ho": 3574,
        "bus": 3575,
        "##योक्ता": 3576,
        "जाओगे": 3577,
        "##ways": 3578,
        "मिटाएँ": 3579,
        "उत्तम": 3580,
        "ख्याल": 3581,
        "##ॉप": 3582,
        "mag": 3583,
        "##िट": 3584,
        "##कों": 3585,
        "##ody": 3586,
        "suff": 3587,
        "गुण": 3588,
        "anyone": 3589,
        "verses": 3590,
        "sing": 3591,
        "##ream": 3592,
        "creation": 3593,
        "_a": 3594,
        "##aim": 3595,
        "तमा": 3596,
        "मिले": 3597,
        "##box": 3598,
        "grant": 3599,
        "manif": 3600,
        "lot": 3601,
        "अफ": 3602,
        "पट्टी": 3603,
        "destroyed": 3604,
        "painful": 3605,
        "lie": 3606,
        "stat": 3607,
        "vis": 3608,
        "इसका": 3609,
        "गोया": 3610,
        "tar": 3611,
        "शुक्र": 3612,
        "present": 3613,
        "शाम": 3614,
        "देना": 3615,
        "नेअ": 3616,
        "पुस्त": 3617,
        "host": 3618,
        "vide": 3619,
        "सजदा": 3620,
        "हस्ता": 3621,
        "बन्दगी": 3622,
        "12": 3623,
        "अतिर": 3624,
        "बोझ": 3625,
        "यक़ीनी": 3626,
        "exal": 3627,
        "##दम": 3628,
        "nay": 3629,
        "sins": 3630,
        "promised": 3631,
        "lat": 3632,
        "पो": 3633,
        "quest": 3634,
        "पलट": 3635,
        "fru": 3636,
        "taken": 3637,
        "मुना": 3638,
        "चन्द": 3639,
        "निर": 3640,
        "prof": 3641,
        "spend": 3642,
        "अतिरिक्त": 3643,
        "बनाकर": 3644,
        "##ush": 3645,
        "ic": 3646,
        "##ज़र": 3647,
        "नेअमत": 3648,
        "format": 3649,
        "##ues": 3650,
        "##gram": 3651,
        "ती": 3652,
        "दौ": 3653,
        "नही": 3654,
        "औलाद": 3655,
        "फिरऔन": 3656,
        "घट": 3657,
        "behold": 3658,
        "क़ुर": 3659,
        "##दरत": 3660,
        "इसकी": 3661,
        "फ़ैसला": 3662,
        "##म्मे": 3663,
        "##्ठा": 3664,
        "बरसा": 3665,
        "##mb": 3666,
        "##odu": 3667,
        "##कर्ता": 3668,
        "शुरू": 3669,
        "red": 3670,
        "##साब": 3671,
        "##वीकार": 3672,
        "manifest": 3673,
        "जरूरत": 3674,
        "##ablish": 3675,
        "cat": 3676,
        "##तो": 3677,
        "औरतों": 3678,
        "ter": 3679,
        "mark": 3680,
        "बदलें": 3681,
        "establish": 3682,
        "प्रमाणपत्र": 3683,
        "deliver": 3684,
        "cond": 3685,
        "ख़ुद": 3686,
        "sound": 3687,
        "truly": 3688,
        "ill": 3689,
        "plan": 3690,
        "due": 3691,
        "##अत": 3692,
        "meeting": 3693,
        "जन्न": 3694,
        "##वेश": 3695,
        "तरी": 3696,
        "##वक": 3697,
        "raised": 3698,
        "सफल": 3699,
        "तस": 3700,
        "##ज़त": 3701,
        "##हास": 3702,
        "log": 3703,
        "##ength": 3704,
        "family": 3705,
        "कल": 3706,
        "तीन": 3707,
        "##ude": 3708,
        "मनुष्य": 3709,
        "##जन": 3710,
        "_r": 3711,
        "##ज़ार": 3712,
        "jinn": 3713,
        "सन्": 3714,
        "##ंख": 3715,
        "सलाम": 3716,
        "असफल": 3717,
        "कमांड": 3718,
        "##ured": 3719,
        "flow": 3720,
        "##und": 3721,
        "miss": 3722,
        "person": 3723,
        "जे": 3724,
        "परिय": 3725,
        "परियोजना": 3726,
        "##हाद": 3727,
        "##क्शन": 3728,
        "##चित": 3729,
        "bir": 3730,
        "town": 3731,
        "सौ": 3732,
        "today": 3733,
        "10": 3734,
        "city": 3735,
        "##चांग": 3736,
        "_n": 3737,
        "hide": 3738,
        "पकड़": 3739,
        "##लील": 3740,
        "जहन्नम": 3741,
        "art": 3742,
        "around": 3743,
        "खाली": 3744,
        "##ज़े": 3745,
        "अनक़": 3746,
        "mary": 3747,
        "patient": 3748,
        "विश्वास": 3749,
        "##यर": 3750,
        "sur": 3751,
        "बर्": 3752,
        "सीधे": 3753,
        "पैग़म्बरों": 3754,
        "खो": 3755,
        "##ences": 3756,
        "contr": 3757,
        "ign": 3758,
        "stri": 3759,
        "thought": 3760,
        "_t": 3761,
        "wife": 3762,
        "##हरें": 3763,
        "पंचांग": 3764,
        "##ased": 3765,
        "del": 3766,
        "##िक़": 3767,
        "isl": 3768,
        "##lf": 3769,
        "लेने": 3770,
        "रौशन": 3771,
        "इतना": 3772,
        "##pr": 3773,
        "cast": 3774,
        "##tend": 3775,
        "till": 3776,
        "##आन": 3777,
        "inh": 3778,
        "mother": 3779,
        "बहुते": 3780,
        "##बह": 3781,
        "##ices": 3782,
        "choose": 3783,
        "आज्ञा": 3784,
        "##oke": 3785,
        "human": 3786,
        "##लम": 3787,
        "##जार": 3788,
        "इसरा": 3789,
        "always": 3790,
        "morning": 3791,
        "##ians": 3792,
        "##फर": 3793,
        "रहमत": 3794,
        "possess": 3795,
        "##ote": 3796,
        "touch": 3797,
        "##men": 3798,
        "##ल्य": 3799,
        "समाप्त": 3800,
        "fun": 3801,
        "tid": 3802,
        "##ins": 3803,
        "program": 3804,
        "##क्षर": 3805,
        "words": 3806,
        "rain": 3807,
        "##ैव": 3808,
        "प्रारंभ": 3809,
        "##क्षित": 3810,
        "बिना": 3811,
        "##बार": 3812,
        "हासिल": 3813,
        "##ateful": 3814,
        "##ोर्ट": 3815,
        "tool": 3816,
        "सच्चा": 3817,
        "मार्गदर्शन": 3818,
        "##alid": 3819,
        "##ुत्व": 3820,
        "##osed": 3821,
        "settings": 3822,
        "dur": 3823,
        "straight": 3824,
        "##ॉन": 3825,
        "नमाज़": 3826,
        "प्रभुत्व": 3827,
        "eur": 3828,
        "##ियामत": 3829,
        "सक्रिय": 3830,
        "क़ियामत": 3831,
        "##त्म": 3832,
        "##ापन": 3833,
        "##ेरत": 3834,
        "certificate": 3835,
        "##ner": 3836,
        "##ones": 3837,
        "desire": 3838,
        "propert": 3839,
        "receive": 3840,
        "click": 3841,
        "##...": 3842,
        "ज़ाहिर": 3843,
        "mean": 3844,
        "##आई": 3845,
        "##बल": 3846,
        "invalid": 3847,
        "proof": 3848,
        "उपयोक्ता": 3849,
        "reminder": 3850,
        "जन्नत": 3851,
        "sir": 3852,
        "applic": 3853,
        "बू": 3854,
        "feel": 3855,
        "fathers": 3856,
        "निकट": 3857,
        "isra": 3858,
        "exam": 3859,
        "fact": 3860,
        "अनक़रीब": 3861,
        "gather": 3862,
        "निका": 3863,
        "##ility": 3864,
        "बनाने": 3865,
        "denied": 3866,
        "##ator": 3867,
        "मुह": 3868,
        "स्रोत": 3869,
        "?”": 3870,
        "##च्च": 3871,
        "version": 3872,
        "video": 3873,
        "बारगाह": 3874,
        "source": 3875,
        "ut": 3876,
        "खे": 3877,
        "रहें": 3878,
        "http": 3879,
        "##ery": 3880,
        "changes": 3881,
        "ईसा": 3882,
        "asked": 3883,
        "मतलब": 3884,
        "##ently": 3885,
        "gone": 3886,
        "##मियान": 3887,
        "gods": 3888,
        "ce": 3889,
        "poin": 3890,
        "##lled": 3891,
        "##cked": 3892,
        "accord": 3893,
        "##ffer": 3894,
        "दरमियान": 3895,
        "योग": 3896,
        "तूने": 3897,
        "game": 3898,
        "##गल": 3899,
        "##leted": 3900,
        "didn": 3901,
        "##तु": 3902,
        "##ief": 3903,
        "रसूलों": 3904,
        "किन": 3905,
        "इन्कार": 3906,
        "वस्तु": 3907,
        "सदैव": 3908,
        "ओह": 3909,
        "ख़ूब": 3910,
        "##row": 3911,
        "##orn": 3912,
        "मुझसे": 3913,
        "##्राम": 3914,
        "पिता": 3915,
        "चलते": 3916,
        "fast": 3917,
        "ज़िन्दा": 3918,
        "pop": 3919,
        "फल": 3920,
        "हवा": 3921,
        "editor": 3922,
        "करोगे": 3923,
        "wid": 3924,
        "तत्वदर्शी": 3925,
        "tidings": 3926,
        "cour": 3927,
        "क्षमाशील": 3928,
        "eas": 3929,
        "सां": 3930,
        "तय": 3931,
        "##me": 3932,
        "दूसरी": 3933,
        "tab": 3934,
        "तस्": 3935,
        "भू": 3936,
        "शहर": 3937,
        "ज़िन्दगी": 3938,
        "हस्ताक्षर": 3939,
        "mind": 3940,
        "कदापि": 3941,
        "पसन्द": 3942,
        "आँख": 3943,
        "##pty": 3944,
        "##hood": 3945,
        "##ैध": 3946,
        "lost": 3947,
        "recompense": 3948,
        "प्रवि": 3949,
        "स्वीकार": 3950,
        "##दारों": 3951,
        "##ॉल": 3952,
        "web": 3953,
        "arg": 3954,
        "आख़िरत": 3955,
        "##gg": 3956,
        "works": 3957,
        "अवैध": 3958,
        "##द्धि": 3959,
        "##गु": 3960,
        "##नेवाली": 3961,
        "मौत": 3962,
        "शाय": 3963,
        "wives": 3964,
        "##कीन": 3965,
        "सन्तान": 3966,
        "##सीबत": 3967,
        "करती": 3968,
        "knew": 3969,
        "मुसीबत": 3970,
        "शरीक": 3971,
        "eng": 3972,
        "##ling": 3973,
        "सामर्थ": 3974,
        "सिवाय": 3975,
        "प्य": 3976,
        "क़सम": 3977,
        "रहेगा": 3978,
        "सब्र": 3979,
        "##angu": 3980,
        "बोले": 3981,
        "##मेल": 3982,
        "##तरित": 3983,
        "गुनाहों": 3984,
        "evid": 3985,
        "##कता": 3986,
        "ढूं": 3987,
        "ईमानवालों": 3988,
        "israel": 3989,
        "##शब्द": 3990,
        "जाँच": 3991,
        "opp": 3992,
        "अधिकार": 3993,
        "बख्शने": 3994,
        "संसार": 3995,
        "dv": 3996,
        "##बीह": 3997,
        "arch": 3998,
        "gives": 3999,
        "##िल्टर": 4000,
        "tit": 4001,
        "blind": 4002,
        "ख़बर": 4003,
        "hearing": 4004,
        "hyp": 4005,
        "bad": 4006,
        "भूल": 4007,
        "woe": 4008,
        "धर्म": 4009,
        "वाक़िफ": 4010,
        "टॉम": 4011,
        "घरों": 4012,
        "pack": 4013,
        "coven": 4014,
        "साझी": 4015,
        "हिसाब": 4016,
        "बेट": 4017,
        "मोड": 4018,
        "मुसलमानों": 4019,
        "empty": 4020,
        "vo": 4021,
        "ग्र": 4022,
        "चे": 4023,
        "##use": 4024,
        "produ": 4025,
        "मुश": 4026,
        "went": 4027,
        "मर्द": 4028,
        "दिख": 4029,
        "##ters": 4030,
        "says": 4031,
        "##ापित": 4032,
        "##ब्ध": 4033,
        "lab": 4034,
        "नए": 4035,
        "ढूंढ": 4036,
        "report": 4037,
        "यू": 4038,
        "फ़ॉ": 4039,
        "email": 4040,
        "तला": 4041,
        "भय": 4042,
        "##esh": 4043,
        "##रण": 4044,
        "sn": 4045,
        "side": 4046,
        "औऱ": 4047,
        "##यम": 4048,
        "break": 4049,
        "install": 4050,
        "उल": 4051,
        "##iness": 4052,
        "rivers": 4053,
        "truthful": 4054,
        "##नेवालो": 4055,
        "##राह": 4056,
        "##षा": 4057,
        "friend": 4058,
        "met": 4059,
        "plac": 4060,
        "##ully": 4061,
        "##याँ": 4062,
        "##ulf": 4063,
        "फ़रमा": 4064,
        "##नाम": 4065,
        "ज़ालिम": 4066,
        "hur": 4067,
        "##aring": 4068,
        "care": 4069,
        "नहरें": 4070,
        "sea": 4071,
        "lies": 4072,
        "ग़": 4073,
        "judgment": 4074,
        "mountains": 4075,
        "less": 4076,
        "ru": 4077,
        "बच": 4078,
        "पंक्ति": 4079,
        "क्लिक": 4080,
        "##kn": 4081,
        "disbelieved": 4082,
        ")?": 4083,
        "बड़े": 4084,
        "##अप": 4085,
        "खुश": 4086,
        "attach": 4087,
        "##युक्त": 4088,
        "magic": 4089,
        "appe": 4090,
        "तमाम": 4091,
        "##ature": 4092,
        "sol": 4093,
        "commun": 4094,
        "thank": 4095,
        "pen": 4096,
        "हिक": 4097,
        "डाटा": 4098,
        "tim": 4099,
        "मित्र": 4100,
        "काट": 4101,
        "##ocr": 4102,
        "##lim": 4103,
        ",-": 4104,
        "lay": 4105,
        "इल्म": 4106,
        "##ric": 4107,
        "deb": 4108,
        "provided": 4109,
        "langu": 4110,
        "##रान": 4111,
        "क़ुरआन": 4112,
        "status": 4113,
        "main": 4114,
        "##उट": 4115,
        "woman": 4116,
        "dark": 4117,
        "टे": 4118,
        "##त्त": 4119,
        "contin": 4120,
        "पहुँचे": 4121,
        "case": 4122,
        "sons": 4123,
        "योग्य": 4124,
        "appoint": 4125,
        "dep": 4126,
        "निर्देशिका": 4127,
        "सामर्थ्य": 4128,
        "##कन": 4129,
        "ज़ि": 4130,
        "कहना": 4131,
        "covenant": 4132,
        "##लब्ध": 4133,
        "##िक्र": 4134,
        "मुक़": 4135,
        "consider": 4136,
        "##ूरी": 4137,
        "विफल": 4138,
        "##ished": 4139,
        "options": 4140,
        "following": 4141,
        "question": 4142,
        "19": 4143,
        "##ऊँ": 4144,
        "मेल": 4145,
        "lest": 4146,
        "sal": 4147,
        "प्रभु": 4148,
        "बट": 4149,
        "##cy": 4150,
        "कुंजी": 4151,
        "कूट": 4152,
        "write": 4153,
        "शुभ": 4154,
        "##लाइन": 4155,
        "##नीन": 4156,
        "known": 4157,
        "पीठ": 4158,
        "अनुमति": 4159,
        "##aves": 4160,
        "thereof": 4161,
        "सोच": 4162,
        "enjoy": 4163,
        "##ware": 4164,
        "नेकी": 4165,
        "coming": 4166,
        "##rie": 4167,
        "प्रस": 4168,
        "समूह": 4169,
        "using": 4170,
        "##oss": 4171,
        "cover": 4172,
        "सहायक": 4173,
        "प्रभुत्वशाली": 4174,
        "अन्": 4175,
        "##ख्ते": 4176,
        "record": 4177,
        "शायद": 4178,
        "grace": 4179,
        "विनष्ट": 4180,
        "भु": 4181,
        "##िस्म": 4182,
        "रोज़ी": 4183,
        "firm": 4184,
        "दर्द": 4185,
        "##ार्ड": 4186,
        "खुली": 4187,
        "डरो": 4188,
        "object": 4189,
        "मिसाल": 4190,
        "islam": 4191,
        "hypocr": 4192,
        "##ंचा": 4193,
        "प्रदर्श": 4194,
        "यूसुफ": 4195,
        "मृ": 4196,
        "##यें": 4197,
        "##ड़ाई": 4198,
        "##by": 4199,
        "saved": 4200,
        "button": 4201,
        "la": 4202,
        "लाते": 4203,
        "दिखाया": 4204,
        "link": 4205,
        "##चारी": 4206,
        "##ane": 4207,
        "रखी": 4208,
        "secret": 4209,
        "एशिया": 4210,
        "##ायम": 4211,
        "##धन": 4212,
        "##ination": 4213,
        "##irt": 4214,
        "exce": 4215,
        "##ज़ल": 4216,
        "##atic": 4217,
        "अपरा": 4218,
        "भेजे": 4219,
        "अक्": 4220,
        "##omes": 4221,
        "##ुद्ध": 4222,
        "##ैर्य": 4223,
        "बाग़": 4224,
        "स्वा": 4225,
        "पैर": 4226,
        "makes": 4227,
        "अन्ततः": 4228,
        "plain": 4229,
        "यूँ": 4230,
        "री": 4231,
        "##र्स": 4232,
        "remain": 4233,
        "wrongdo": 4234,
        "##load": 4235,
        "धैर्य": 4236,
        "wee": 4237,
        "शब्द": 4238,
        "##uty": 4239,
        "गुमराह": 4240,
        "घाटे": 4241,
        "dvd": 4242,
        "शो": 4243,
        "quot": 4244,
        "फोन": 4245,
        "##डा": 4246,
        "रखे": 4247,
        "imm": 4248,
        "##िद": 4249,
        "##्यान": 4250,
        "संर": 4251,
        "##ists": 4252,
        "scripture": 4253,
        "नौ": 4254,
        "##बारा": 4255,
        "##त्ल": 4256,
        "forbidden": 4257,
        "पहचान": 4258,
        "इकट": 4259,
        "पे": 4260,
        "##ह्न": 4261,
        "tree": 4262,
        "माझ": 4263,
        "became": 4264,
        "##ियन": 4265,
        "unkn": 4266,
        "तेरी": 4267,
        "asia": 4268,
        "नियत": 4269,
        "देखने": 4270,
        "build": 4271,
        "four": 4272,
        "क़ा": 4273,
        "##ative": 4274,
        "pal": 4275,
        "short": 4276,
        "unse": 4277,
        "poly": 4278,
        "हिकमत": 4279,
        "occ": 4280,
        "टुक": 4281,
        "believing": 4282,
        "##ग्री": 4283,
        "##ared": 4284,
        "event": 4285,
        "धन": 4286,
        "##mm": 4287,
        "जिनको": 4288,
        "filter": 4289,
        "muslim": 4290,
        "परिवर्तन": 4291,
        "vict": 4292,
        "fulf": 4293,
        "मही": 4294,
        "##uct": 4295,
        "noah": 4296,
        "##क्रिया": 4297,
        "##ser": 4298,
        "suffer": 4299,
        "स्क्रीन": 4300,
        "कितने": 4301,
        "exalted": 4302,
        "चैन": 4303,
        "permission": 4304,
        "धो": 4305,
        "रहता": 4306,
        "associate": 4307,
        "available": 4308,
        "तंग": 4309,
        "##ander": 4310,
        "पड़": 4311,
        "##ape": 4312,
        "##ager": 4313,
        "कब": 4314,
        "##मु": 4315,
        "##क़ी": 4316,
        "disp": 4317,
        "food": 4318,
        "unknown": 4319,
        "pol": 4320,
        "20": 4321,
        "##ंप": 4322,
        "heed": 4323,
        "having": 4324,
        "नेक": 4325,
        "equal": 4326,
        "वीडियो": 4327,
        "title": 4328,
        "##asure": 4329,
        "##तिश": 4330,
        "provision": 4331,
        "##िरऔन": 4332,
        "##मीद": 4333,
        "prepar": 4334,
        "##भाग": 4335,
        "enemy": 4336,
        "##itch": 4337,
        "दस्तावे": 4338,
        "net": 4339,
        "forever": 4340,
        "har": 4341,
        "एक्स": 4342,
        "complete": 4343,
        "folders": 4344,
        "कूटशब्द": 4345,
        "##फी": 4346,
        "sac": 4347,
        "faces": 4348,
        "परहेज़गार": 4349,
        "ज़रा": 4350,
        "##ives": 4351,
        "##ंटर": 4352,
        "लोगो": 4353,
        "मोमिनीन": 4354,
        "##fully": 4355,
        "##लू": 4356,
        "##स्थित": 4357,
        "along": 4358,
        "##नाक": 4359,
        "##cend": 4360,
        "severe": 4361,
        "अनुग्रह": 4362,
        "अवतरित": 4363,
        "forward": 4364,
        "हमसे": 4365,
        "##ason": 4366,
        "transl": 4367,
        "उल्": 4368,
        "strong": 4369,
        "##oto": 4370,
        "अगले": 4371,
        "location": 4372,
        "जिससे": 4373,
        "admon": 4374,
        "desires": 4375,
        "लूत": 4376,
        "लौटा": 4377,
        "अज": 4378,
        "नक़": 4379,
        "##काल": 4380,
        "प्रवेश": 4381,
        "screen": 4382,
        "जांच": 4383,
        "कॉन्": 4384,
        "फैला": 4385,
        "##लाइ": 4386,
        "कप": 4387,
        "##ets": 4388,
        "प्लगइन": 4389,
        "oper": 4390,
        "लाल": 4391,
        "enable": 4392,
        "अनुप्र": 4393,
        "##ular": 4394,
        "##icient": 4395,
        "wronged": 4396,
        "cry": 4397,
        "##ari": 4398,
        "submit": 4399,
        "अनुप्रयोग": 4400,
        "ऑंख": 4401,
        "मामले": 4402,
        "sight": 4403,
        "prefer": 4404,
        "access": 4405,
        ");": 4406,
        "unless": 4407,
        "उपलब्ध": 4408,
        "##uge": 4409,
        "few": 4410,
        "garden": 4411,
        "जल्द": 4412,
        "hope": 4413,
        "##ued": 4414,
        "करी": 4415,
        "प्रबंध": 4416,
        "##oney": 4417,
        "मिट्टी": 4418,
        "मृत्य": 4419,
        "अम": 4420,
        "##lt": 4421,
        "##तमान": 4422,
        "afflic": 4423,
        "बहुतेरे": 4424,
        "dri": 4425,
        "##सोस": 4426,
        "जानकारी": 4427,
        "प्रश": 4428,
        "बच्चे": 4429,
        "bef": 4430,
        "expl": 4431,
        "url": 4432,
        "knower": 4433,
        "खाओ": 4434,
        "partners": 4435,
        "/%": 4436,
        "अज्ञ": 4437,
        "आम": 4438,
        "बेहिश्त": 4439,
        "##तरा": 4440,
        "##irm": 4441,
        "मृत्यु": 4442,
        "##kt": 4443,
        "##धिक": 4444,
        "बनाते": 4445,
        "_e": 4446,
        "##बानी": 4447,
        "##ोग्राम": 4448,
        "##verse": 4449,
        "greater": 4450,
        "सरकश": 4451,
        "स्त्रियों": 4452,
        "विचार": 4453,
        "##ायी": 4454,
        "वर्तमान": 4455,
        "##उन": 4456,
        "शक्ति": 4457,
        "फ़िरऔन": 4458,
        "##aps": 4459,
        "easy": 4460,
        "##ier": 4461,
        "मौजूदा": 4462,
        "field": 4463,
        "blessings": 4464,
        "according": 4465,
        "दस्तावेज़": 4466,
        "gir": 4467,
        "##ann": 4468,
        "conce": 4469,
        "mult": 4470,
        "दौर": 4471,
        "अहले": 4472,
        "bounty": 4473,
        "लानेवालो": 4474,
        "affair": 4475,
        "##umn": 4476,
        "गलत": 4477,
        "##he": 4478,
        "जीवित": 4479,
        "पूर्व": 4480,
        "उम्मीद": 4481,
        "cut": 4482,
        "within": 4483,
        "ग़ौर": 4484,
        "स्थानी": 4485,
        "बन्दे": 4486,
        "seven": 4487,
        "खाते": 4488,
        "सरकशी": 4489,
        "##मार": 4490,
        "##ार्थ": 4491,
        "##फार": 4492,
        "समझा": 4493,
        "कैसा": 4494,
        "either": 4495,
        "चख": 4496,
        "##लि": 4497,
        "काफिरों": 4498,
        "अत्याचार": 4499,
        "sorry": 4500,
        "europe": 4501,
        "##ग़ैर": 4502,
        "returned": 4503,
        "अभिले": 4504,
        "authority": 4505,
        "खिला": 4506,
        "##केत": 4507,
        "तुम्हे": 4508,
        "followed": 4509,
        "souls": 4510,
        "सामान्य": 4511,
        "सीमा": 4512,
        "subject": 4513,
        "public": 4514,
        "mr": 4515,
        "##ai": 4516,
        "regard": 4517,
        "rev": 4518,
        "प्रे": 4519,
        "लाने": 4520,
        "सुबह": 4521,
        "sit": 4522,
        "आता": 4523,
        "##reed": 4524,
        "कने": 4525,
        "share": 4526,
        "यहूद": 4527,
        "आमाल": 4528,
        "##que": 4529,
        "thanks": 4530,
        "हार": 4531,
        "year": 4532,
        "मुक़ाबले": 4533,
        "ख़ौ": 4534,
        "कृत": 4535,
        "मोमिन": 4536,
        "##स्य": 4537,
        "##सरण": 4538,
        "नक़ल": 4539,
        "##एम": 4540,
        "घटना": 4541,
        "##वधान": 4542,
        "##च्या": 4543,
        "##दन": 4544,
        "chr": 4545,
        "अनुसरण": 4546,
        "स्थानीय": 4547,
        "नर": 4548,
        "लाओ": 4549,
        "least": 4550,
        "खड़े": 4551,
        "eff": 4552,
        "##bed": 4553,
        "heard": 4554,
        "instead": 4555,
        "सारी": 4556,
        "##्ही": 4557,
        "mention": 4558,
        "ज़ुल्म": 4559,
        "##दर": 4560,
        "##ल्ट": 4561,
        "##धारित": 4562,
        "##मानी": 4563,
        "##घ्र": 4564,
        "##ज़िर": 4565,
        "डाले": 4566,
        "विन्यास": 4567,
        "autom": 4568,
        "##ktop": 4569,
        "##ियम": 4570,
        "सुनता": 4571,
        "कुफ्र": 4572,
        "application": 4573,
        "प्यार": 4574,
        "##rica": 4575,
        "noble": 4576,
        "दोबारा": 4577,
        "##onds": 4578,
        "लिखा": 4579,
        "शीघ्र": 4580,
        "once": 4581,
        "पालने": 4582,
        "बस्ती": 4583,
        "cust": 4584,
        "##ज़ार": 4585,
        "दरवा": 4586,
        "hidden": 4587,
        "मुला": 4588,
        "##रिक": 4589,
        "warner": 4590,
        "अवज्ञा": 4591,
        "तिथ": 4592,
        "control": 4593,
        "dom": 4594,
        "##राब": 4595,
        "##वरण": 4596,
        "उतारा": 4597,
        "drive": 4598,
        "उच्च": 4599,
        "##ism": 4600,
        "##ta": 4601,
        "ge": 4602,
        "##uration": 4603,
        "##दिष्ट": 4604,
        "##सारिक": 4605,
        "निशानियों": 4606,
        "सांसारिक": 4607,
        "यूर": 4608,
        "भेजें": 4609,
        "क़ुब": 4610,
        "क़ुबूल": 4611,
        "fem": 4612,
        "जानवर": 4613,
        "बनी": 4614,
        "##रो": 4615,
        "moon": 4616,
        "font": 4617,
        "jes": 4618,
        "टी": 4619,
        "अधिकतर": 4620,
        "received": 4621,
        "big": 4622,
        "##ged": 4623,
        "##वाली": 4624,
        "party": 4625,
        "running": 4626,
        "_o": 4627,
        "##ron": 4628,
        "कहता": 4629,
        "strength": 4630,
        "मज़ा": 4631,
        "प्रोग्राम": 4632,
        "enough": 4633,
        "अके": 4634,
        "चिह्न": 4635,
        "lic": 4636,
        "sle": 4637,
        "मुख": 4638,
        "##umb": 4639,
        "warning": 4640,
        "parents": 4641,
        "##ँव": 4642,
        "detail": 4643,
        "won": 4644,
        "honour": 4645,
        "sufficient": 4646,
        "during": 4647,
        "archive": 4648,
        "अद्य": 4649,
        "सिर": 4650,
        "आशा": 4651,
        "##फे": 4652,
        "##ठी": 4653,
        "परस": 4654,
        "corru": 4655,
        "अभिलेख": 4656,
        "दुश्": 4657,
        "perform": 4658,
        "##दती": 4659,
        "##लग्न": 4660,
        "##cription": 4661,
        "दुखद": 4662,
        "नई": 4663,
        "##नीय": 4664,
        "अर": 4665,
        "unseen": 4666,
        "friends": 4667,
        "हटकर": 4668,
        "jesus": 4669,
        "अंग": 4670,
        "##जिए": 4671,
        "##--": 4672,
        "worlds": 4673,
        "secure": 4674,
        "इसराईल": 4675,
        "##ंश": 4676,
        "##शु": 4677,
        "ख़र्च": 4678,
        "##क्रम": 4679,
        "संपादक": 4680,
        "single": 4681,
        "##कती": 4682,
        "request": 4683,
        "क्रिया": 4684,
        "rejected": 4685,
        "घड़ी": 4686,
        "बेटा": 4687,
        "desktop": 4688,
        "##है": 4689,
        "example": 4690,
        "polythe": 4691,
        "वार": 4692,
        "##ech": 4693,
        "कठोर": 4694,
        "##sed": 4695,
        "##हार": 4696,
        "कहेगा": 4697,
        "##क्षक": 4698,
        "preview": 4699,
        "काफ़िरों": 4700,
        "swear": 4701,
        "##ex": 4702,
        "card": 4703,
        "offer": 4704,
        "join": 4705,
        "सत्या": 4706,
        "living": 4707,
        "label": 4708,
        "फे": 4709,
        "##ouses": 4710,
        "glad": 4711,
        "ख़ुश": 4712,
        "ज्ञापन": 4713,
        "वृ": 4714,
        "क़ाब": 4715,
        "top": 4716,
        "आपने": 4717,
        "##साद": 4718,
        "ah": 4719,
        "बाल": 4720,
        "killed": 4721,
        "अक्षम": 4722,
        "job": 4723,
        "आते": 4724,
        "हद": 4725,
        "##ियार": 4726,
        "मानते": 4727,
        "कई": 4728,
        "##दारी": 4729,
        "छुपा": 4730,
        "सुरक्षित": 4731,
        ")...": 4732,
        "##दिर": 4733,
        "soft": 4734,
        "remo": 4735,
        "बिगा": 4736,
        "_l": 4737,
        "##हरे": 4738,
        "##ानि": 4739,
        "##न्स": 4740,
        "##ॉर्": 4741,
        "##ल्स": 4742,
        "##vert": 4743,
        "##unk": 4744,
        "med": 4745,
        "lim": 4746,
        "##बूल": 4747,
        "org": 4748,
        "रोज़ी": 4749,
        "अनुसार": 4750,
        "bestowed": 4751,
        "ध्यान": 4752,
        "देगें": 4753,
        "इस्": 4754,
        "track": 4755,
        "परसतिश": 4756,
        "अदा": 4757,
        "##तिम": 4758,
        "अवधि": 4759,
        "##cribe": 4760,
        "falsehood": 4761,
        "##ium": 4762,
        "##ication": 4763,
        "सीधा": 4764,
        "खाना": 4765,
        "छिप": 4766,
        "इच्छ": 4767,
        "करत": 4768,
        "white": 4769,
        "ship": 4770,
        "दिखाता": 4771,
        "##rew": 4772,
        "##न्ध": 4773,
        "worsh": 4774,
        "शामिल": 4775,
        "worshipp": 4776,
        "hor": 4777,
        "ड्र": 4778,
        "शत्र": 4779,
        "##न्ना": 4780,
        "##लोड": 4781,
        "युद्ध": 4782,
        "mid": 4783,
        "लं": 4784,
        "##with": 4785,
        "आपका": 4786,
        "चुप": 4787,
        "अंतिम": 4788,
        "##ift": 4789,
        "gnome": 4790,
        "##िव": 4791,
        "duty": 4792,
        "लेंगे": 4793,
        "wis": 4794,
        "local": 4795,
        "एन": 4796,
        "##inal": 4797,
        "##pend": 4798,
        "##ught": 4799,
        "हेतु": 4800,
        "##फ्त": 4801,
        "deal": 4802,
        "पहली": 4803,
        "forget": 4804,
        "हमको": 4805,
        "images": 4806,
        "हाथों": 4807,
        "small": 4808,
        "custom": 4809,
        "##ying": 4810,
        "reason": 4811,
        "space": 4812,
        "license": 4813,
        "##आर": 4814,
        "##ister": 4815,
        "##ताव": 4816,
        "संलग्न": 4817,
        "guil": 4818,
        "व्यव": 4819,
        "different": 4820,
        "रद्द": 4821,
        "##ales": 4822,
        "commanded": 4823,
        "position": 4824,
        "शत्रु": 4825,
        "jose": 4826,
        "##कृत": 4827,
        "##ession": 4828,
        "दाख": 4829,
        "सुनते": 4830,
        "समर्थन": 4831,
        "max": 4832,
        "परन्तु": 4833,
        "boy": 4834,
        "confirm": 4835,
        "दौरान": 4836,
        "##aut": 4837,
        "arm": 4838,
        "##इस": 4839,
        "##थम": 4840,
        "उतार": 4841,
        "##क़त": 4842,
        "##rog": 4843,
        "walk": 4844,
        "##ually": 4845,
        "निष्": 4846,
        "कुफ़": 4847,
        "_b": 4848,
        "cent": 4849,
        "##बन्द": 4850,
        "language": 4851,
        "html": 4852,
        "cam": 4853,
        "class": 4854,
        "##ज्ज": 4855,
        "तारी": 4856,
        "appro": 4857,
        "फ़रिश्ते": 4858,
        "joseph": 4859,
        "upd": 4860,
        "मज": 4861,
        "सामग्री": 4862,
        "पेट": 4863,
        "##ल्या": 4864,
        "##ateg": 4865,
        "##ract": 4866,
        "आउट": 4867,
        "हँ": 4868,
        "##ण्या": 4869,
        "reck": 4870,
        "##ung": 4871,
        "##म्प": 4872,
        "oath": 4873,
        "भग": 4874,
        "##thy": 4875,
        "weak": 4876,
        "सात": 4877,
        "##चेत": 4878,
        "श्री": 4879,
        "##्ता": 4880,
        "##दस्त": 4881,
        "सिखा": 4882,
        "measure": 4883,
        "expect": 4884,
        "refuge": 4885,
        "prostrate": 4886,
        "yourself": 4887,
        "##म्म": 4888,
        "##फ़ि": 4889,
        "musa": 4890,
        "##work": 4891,
        "##चाल": 4892,
        "column": 4893,
        "बढ़कर": 4894,
        "wisdom": 4895,
        "कुफ़्र": 4896,
        "trave": 4897,
        "guides": 4898,
        ")!": 4899,
        "लान": 4900,
        "##बूत": 4901,
        "##ृत्त": 4902,
        "मारे": 4903,
        "सन्द": 4904,
        "नज़र": 4905,
        "सारा": 4906,
        "##ृति": 4907,
        "साइ": 4908,
        "aud": 4909,
        "daught": 4910,
        "आती": 4911,
        "##urity": 4912,
        "लॉग": 4913,
        "परी": 4914,
        "obser": 4915,
        "लिखने": 4916,
        "authent": 4917,
        "blessed": 4918,
        "money": 4919,
        "इस्ते": 4920,
        "wherein": 4921,
        "##ूमि": 4922,
        "ज़िम्मे": 4923,
        "reckon": 4924,
        "table": 4925,
        "##खे": 4926,
        "हुक": 4927,
        "second": 4928,
        "विभ": 4929,
        "प्रकाशना": 4930,
        "लानत": 4931,
        "छुट": 4932,
        "मूल्य": 4933,
        "reply": 4934,
        "बाहम": 4935,
        "मस": 4936,
        "अनुक": 4937,
        "इकट्ठा": 4938,
        "prepared": 4939,
        "##ored": 4940,
        "coll": 4941,
        "hypocrites": 4942,
        "सचेत": 4943,
        "seized": 4944,
        "##वाव": 4945,
        "##नो": 4946,
        "##ply": 4947,
        "whome": 4948,
        "लाग": 4949,
        "arab": 4950,
        "desp": 4951,
        "फ़ॉन्ट": 4952,
        "whomever": 4953,
        "##ख्तेयार": 4954,
        "##change": 4955,
        "##ूंगा": 4956,
        "passed": 4957,
        "previous": 4958,
        "increase": 4959,
        "inher": 4960,
        "काश": 4961,
        "bro": 4962,
        "##ाहि": 4963,
        "anim": 4964,
        "photo": 4965,
        "भगवान": 4966,
        "ann": 4967,
        "फ़िल्टर": 4968,
        "बुरे": 4969,
        "एहद": 4970,
        "sust": 4971,
        "ज़्या": 4972,
        "configuration": 4973,
        "ay": 4974,
        "बक": 4975,
        "##wise": 4976,
        "ईमानवाले": 4977,
        "जिहाद": 4978,
        "jew": 4979,
        "ब्ल": 4980,
        "खाने": 4981,
        "##पुट": 4982,
        "सावधान": 4983,
        "##ump": 4984,
        "feed": 4985,
        "##शुदा": 4986,
        "##कारा": 4987,
        "पिछले": 4988,
        "pie": 4989,
        "##षित": 4990,
        "कितनी": 4991,
        "वेब": 4992,
        "##ils": 4993,
        "general": 4994,
        "automatic": 4995,
        "##भव": 4996,
        "_w": 4997,
        "rather": 4998,
        "grow": 4999,
        "महान": 5000,
        "अर्ज़": 5001,
        "bit": 5002,
        "आवश्य": 5003,
        "##वियों": 5004,
        "##लोकन": 5005,
        "post": 5006,
        "int": 5007,
        "कुरान": 5008,
        "##क्षम": 5009,
        "lik": 5010,
        "इस्तेमाल": 5011,
        "alm": 5012,
        "drop": 5013,
        "विशेष": 5014,
        "##eness": 5015,
        "रखना": 5016,
        "someone": 5017,
        "##जात": 5018,
        "मॉ": 5019,
        "christ": 5020,
        "बॉ": 5021,
        "print": 5022,
        "भारी": 5023,
        "लक्ष": 5024,
        "abide": 5025,
        "प्रविष्ट": 5026,
        "bug": 5027,
        "क़ु": 5028,
        "##ेक्ट": 5029,
        "लेता": 5030,
        "पूछो": 5031,
        "पहाड़": 5032,
        "fol": 5033,
        "साथी": 5034,
        "डेस्क": 5035,
        "फैसला": 5036,
        "benefit": 5037,
        "ख़र्च": 5038,
        "##िन्न": 5039,
        "इसको": 5040,
        "साफ़": 5041,
        "देखें": 5042,
        "छोड़कर": 5043,
        "willed": 5044,
        "supported": 5045,
        "बिल": 5046,
        "##itude": 5047,
        "seem": 5048,
        "abode": 5049,
        "pleased": 5050,
        "##प्ता": 5051,
        "##tain": 5052,
        "आसमानों": 5053,
        "##्रष्ट": 5054,
        "सफलता": 5055,
        "jour": 5056,
        "mad": 5057,
        "##यंत्र": 5058,
        "जादूगर": 5059,
        "रहमान": 5060,
        "orig": 5061,
        "spread": 5062,
        "caused": 5063,
        "आरंभ": 5064,
        "तयशुदा": 5065,
        "_h": 5066,
        "मानो": 5067,
        "##ule": 5068,
        "past": 5069,
        "ten": 5070,
        "उत्": 5071,
        "ध्व": 5072,
        "##body": 5073,
        "##्याय": 5074,
        "संस्थ": 5075,
        "##ili": 5076,
        "adam": 5077,
        "draw": 5078,
        "दर्दनाक": 5079,
        "रास्ता": 5080,
        "##gra": 5081,
        "memo": 5082,
        "क़ादिर": 5083,
        "दशा": 5084,
        "विस्त": 5085,
        "राहे": 5086,
        "##रात": 5087,
        "फ़ाइलें": 5088,
        "glor": 5089,
        "lawful": 5090,
        "later": 5091,
        "##परस्त": 5092,
        "##इश": 5093,
        "##गो": 5094,
        "lear": 5095,
        "burning": 5096,
        "function": 5097,
        "श्रे": 5098,
        "##ाई": 5099,
        "प्रत": 5100,
        "exc": 5101,
        "incl": 5102,
        "apostles": 5103,
        "muslims": 5104,
        "चढ़": 5105,
        "व्या": 5106,
        "##col": 5107,
        "##tion": 5108,
        "##ताज": 5109,
        "स्क": 5110,
        "cance": 5111,
        "बुद्धि": 5112,
        "##ients": 5113,
        "खी": 5114,
        "priv": 5115,
        "रहना": 5116,
        "जाएं": 5117,
        "खुला": 5118,
        "##ाला": 5119,
        "ज़ुल्म": 5120,
        "encry": 5121,
        "अज्ञात": 5122,
        "संकेत": 5123,
        "लाभ": 5124,
        "earned": 5125,
        "disbelief": 5126,
        "##टॉप": 5127,
        "##ster": 5128,
        "serve": 5129,
        "सुनो": 5130,
        "##ribution": 5131,
        "##ण्ड": 5132,
        "##ched": 5133,
        "faithful": 5134,
        "##िप्ट": 5135,
        "diff": 5136,
        "##claim": 5137,
        "##ories": 5138,
        "मरने": 5139,
        "पूर्वाव": 5140,
        "पूर्वावलोकन": 5141,
        "arr": 5142,
        "तौर": 5143,
        "##पित": 5144,
        "process": 5145,
        "map": 5146,
        "एल": 5147,
        "नु": 5148,
        "निर्दिष्ट": 5149,
        "सत्र": 5150,
        "थीं": 5151,
        "सरपरस्त": 5152,
        "looking": 5153,
        "कॉन्फ़ि": 5154,
        "##come": 5155,
        "अपमान": 5156,
        "मिट": 5157,
        "point": 5158,
        "conceal": 5159,
        "मं": 5160,
        "सक्षम": 5161,
        "rebe": 5162,
        "whatsoever": 5163,
        "fair": 5164,
        "africa": 5165,
        "##enance": 5166,
        "##ident": 5167,
        "रखने": 5168,
        "जैसी": 5169,
        "##ौल": 5170,
        "प्रेष": 5171,
        "गर्": 5172,
        "##rible": 5173,
        "असम": 5174,
        "rich": 5175,
        "##बख्त": 5176,
        "##फ़ॉ": 5177,
        "दरिया": 5178,
        "device": 5179,
        "session": 5180,
        "उदार": 5181,
        "##ीत": 5182,
        "देकर": 5183,
        "##ring": 5184,
        "turns": 5185,
        "guilty": 5186,
        "ब्रा": 5187,
        "इन्सान": 5188,
        "##bar_": 5189,
        "पैरवी": 5190,
        "कृतज्ञ": 5191,
        "तिथि": 5192,
        "यूरोप": 5193,
        "names": 5194,
        "##cle": 5195,
        "होंगी": 5196,
        "decl": 5197,
        "डराने": 5198,
        "हलाक": 5199,
        "ld": 5200,
        "##िये": 5201,
        "grieve": 5202,
        "पाबन्द": 5203,
        "theirs": 5204,
        "occur": 5205,
        "mom": 5206,
        "##ोरी": 5207,
        "exec": 5208,
        "argument": 5209,
        "खड़े": 5210,
        "गिन": 5211,
        "##ख़बरी": 5212,
        "teach": 5213,
        "glory": 5214,
        "charact": 5215,
        "week": 5216,
        "inte": 5217,
        "manager": 5218,
        "admit": 5219,
        "arrog": 5220,
        "dust": 5221,
        "ईमेल": 5222,
        "भाषा": 5223,
        "पुस्तिका": 5224,
        "दबा": 5225,
        "##फ़र": 5226,
        "सेना": 5227,
        "##स्पर": 5228,
        "remote": 5229,
        "बटन": 5230,
        "befall": 5231,
        "##con": 5232,
        "##ds": 5233,
        "##िता": 5234,
        "देखता": 5235,
        "selection": 5236,
        "phone": 5237,
        "dear": 5238,
        "##cks": 5239,
        "आएगा": 5240,
        "remembr": 5241,
        "अत्याचारी": 5242,
        "\"{": 5243,
        "}\"": 5244,
        "सम्ब": 5245,
        "वारिस": 5246,
        "फाय": 5247,
        "मना": 5248,
        "losers": 5249,
        "फज़ल": 5250,
        "लगी": 5251,
        "##ital": 5252,
        "नियंत्र": 5253,
        "heav": 5254,
        "sil": 5255,
        "##cious": 5256,
        "##oth": 5257,
        "वाक़िफ़": 5258,
        "ignor": 5259,
        "ढूंढें": 5260,
        "remembrance": 5261,
        "dad": 5262,
        "##बू": 5263,
        "एस": 5264,
        "यहां": 5265,
        "पथभ": 5266,
        "bat": 5267,
        "ब्र": 5268,
        "room": 5269,
        "symb": 5270,
        "accepted": 5271,
        "virt": 5272,
        "##टका": 5273,
        "##रेशन": 5274,
        "चाहेंगे": 5275,
        "##्रीका": 5276,
        "lad": 5277,
        "##नट": 5278,
        "##योज": 5279,
        "##क्सी": 5280,
        "बैक": 5281,
        "स्तर": 5282,
        "उत्तर": 5283,
        "waiting": 5284,
        "प्रतीक्षा": 5285,
        "“%": 5286,
        "##चों": 5287,
        "thir": 5288,
        "ज़रिए": 5289,
        "##ोटो": 5290,
        "specified": 5291,
        "simil": 5292,
        "course": 5293,
        "bab": 5294,
        "whole": 5295,
        "काफ़िर": 5296,
        "##int": 5297,
        "sends": 5298,
        "##स्करण": 5299,
        "उठाए": 5300,
        "##वर्ड": 5301,
        "दोज़": 5302,
        "रास्ते": 5303,
        "vi": 5304,
        "अला": 5305,
        "##under": 5306,
        "##वां": 5307,
        "contacts": 5308,
        "संपादित": 5309,
        "guardian": 5310,
        "fucking": 5311,
        "exchange": 5312,
        "polytheists": 5313,
        "speech": 5314,
        "आहेत": 5315,
        "डेस्कटॉप": 5316,
        "असमर्थ": 5317,
        "##बित": 5318,
        "डाउन": 5319,
        "आख़ेरत": 5320,
        "judgement": 5321,
        "wrongdoers": 5322,
        "##फ़ा": 5323,
        "##ises": 5324,
        "देश": 5325,
        "##pel": 5326,
        "##right": 5327,
        "anc": 5328,
        "जिनकी": 5329,
        "ready": 5330,
        "तसबीह": 5331,
        "क़दम": 5332,
        "##fr": 5333,
        "इसपर": 5334,
        "compass": 5335,
        "returns": 5336,
        "hi": 5337,
        "सिं": 5338,
        "audio": 5339,
        "अंदर": 5340,
        "जन": 5341,
        "##bs": 5342,
        "##ुमा": 5343,
        "exists": 5344,
        "proofs": 5345,
        "times": 5346,
        "uri": 5347,
        "कमी": 5348,
        "##बीर": 5349,
        "favor": 5350,
        "अर्थ": 5351,
        "अलब": 5352,
        "seeing": 5353,
        "fulfill": 5354,
        "jews": 5355,
        "##ax": 5356,
        "everyone": 5357,
        "hasten": 5358,
        "वर्ण": 5359,
        "fruits": 5360,
        "inherit": 5361,
        "मुर्द": 5362,
        "##asts": 5363,
        "दिनों": 5364,
        "बरकत": 5365,
        "poor": 5366,
        "reached": 5367,
        "मुख्य": 5368,
        "##ng": 5369,
        "प्रकट": 5370,
        "गुज़र": 5371,
        "descend": 5372,
        "backs": 5373,
        "दाख़": 5374,
        "##पूर्ण": 5375,
        "determ": 5376,
        "##ern": 5377,
        "जिसपर": 5378,
        "संपादन": 5379,
        "##velop": 5380,
        "cattle": 5381,
        "ट्रै": 5382,
        "windows": 5383,
        "code": 5384,
        "##bers": 5385,
        "contain": 5386,
        "provide": 5387,
        "homes": 5388,
        "treat": 5389,
        "##ename": 5390,
        "##alog": 5391,
        "burden": 5392,
        "##obey": 5393,
        "disobey": 5394,
        "plot": 5395,
        "level": 5396,
        "da": 5397,
        "गे": 5398,
        "सूर": 5399,
        "##amed": 5400,
        "blood": 5401,
        "menu": 5402,
        "##टल": 5403,
        "##षण": 5404,
        "fore": 5405,
        "संस्करण": 5406,
        "बल": 5407,
        "##तों": 5408,
        "##ades": 5409,
        "कुदरत": 5410,
        "पाकी": 5411,
        "##uses": 5412,
        "apart": 5413,
        "service": 5414,
        "##पूर्वक": 5415,
        "अफ्रीका": 5416,
        "##क़ा": 5417,
        "दृष्टि": 5418,
        "वैध": 5419,
        "esc": 5420,
        "निकाह": 5421,
        "खैर": 5422,
        "##जर": 5423,
        "doesn": 5424,
        "हलाल": 5425,
        "utter": 5426,
        "दिला": 5427,
        "##augh": 5428,
        "अद्यतन": 5429,
        "मक्का": 5430,
        "download": 5431,
        "बढ़ा": 5432,
        "tag": 5433,
        "##सन": 5434,
        "##समें": 5435,
        "##चन": 5436,
        "terrible": 5437,
        "##ंतर": 5438,
        "साफ़": 5439,
        "आराम": 5440,
        "भटक": 5441,
        "##नियों": 5442,
        "laugh": 5443,
        "anj": 5444,
        "दिखाई": 5445,
        "recite": 5446,
        "दूसरा": 5447,
        "patience": 5448,
        "##wh": 5449,
        "##ony": 5450,
        "हाज़िर": 5451,
        "बढ़ा": 5452,
        "low": 5453,
        "##ब्र": 5454,
        "##बरदस्त": 5455,
        "##ब्ल": 5456,
        "repentance": 5457,
        "ele": 5458,
        "##ero": 5459,
        "##ison": 5460,
        "insert": 5461,
        "kingdom": 5462,
        "placed": 5463,
        "taught": 5464,
        "खिस": 5465,
        "बग": 5466,
        "बजा": 5467,
        "und": 5468,
        "##uta": 5469,
        "proble": 5470,
        "brings": 5471,
        "स्वतः": 5472,
        "separ": 5473,
        "##fort": 5474,
        "##haps": 5475,
        "width": 5476,
        "multip": 5477,
        "दाख़िल": 5478,
        "##स्प": 5479,
        "बैठक": 5480,
        "तंत्र": 5481,
        "perhaps": 5482,
        "बस्तियों": 5483,
        "replied": 5484,
        "फ्ल": 5485,
        "मिनट": 5486,
        "उपस्थित": 5487,
        "target": 5488,
        "दह": 5489,
        "##light": 5490,
        "##मित": 5491,
        "doom": 5492,
        "लाया": 5493,
        "घं": 5494,
        "##ee": 5495,
        "##lex": 5496,
        "shit": 5497,
        "समु": 5498,
        "cloud": 5499,
        "अनुस्म": 5500,
        "bow": 5501,
        "दाहि": 5502,
        "जिनमें": 5503,
        "bookm": 5504,
        "throne": 5505,
        "insp": 5506,
        "आसान": 5507,
        "प्रारूप": 5508,
        "pure": 5509,
        "दू": 5510,
        "फा": 5511,
        "assign": 5512,
        "नव": 5513,
        "##यक": 5514,
        "प्रभाव": 5515,
        "पूज": 5516,
        "सीडी": 5517,
        "sending": 5518,
        "prophets": 5519,
        "गये": 5520,
        "##स्या": 5521,
        "dece": 5522,
        "स्त्री": 5523,
        "else": 5524,
        "granted": 5525,
        "ध्वनि": 5526,
        "मज़ा": 5527,
        "आपकी": 5528,
        "लेख": 5529,
        "blog": 5530,
        "glob": 5531,
        "##लिस": 5532,
        "yours": 5533,
        "##वाई": 5534,
        "block": 5535,
        "बेहश्त": 5536,
        "इरा": 5537,
        "गाय": 5538,
        "##ंसा": 5539,
        "##इल": 5540,
        "दरख्त": 5541,
        "security": 5542,
        "बताओ": 5543,
        "इस्लाम": 5544,
        "इच्छा": 5545,
        "मस्": 5546,
        "तुम्ही": 5547,
        "##osen": 5548,
        "darkness": 5549,
        "sustenance": 5550,
        "घड़": 5551,
        "ठहर": 5552,
        "##reet": 5553,
        "##ott": 5554,
        "पालन": 5555,
        "समूद": 5556,
        "##ुत्": 5557,
        "black": 5558,
        "समर्थित": 5559,
        "शिक": 5560,
        "ख़ैर": 5561,
        "##xy": 5562,
        "करम": 5563,
        "प्रार्थ": 5564,
        "##लेट": 5565,
        "fix": 5566,
        "ख़ौफ": 5567,
        "अलबत्ता": 5568,
        "mer": 5569,
        "press": 5570,
        "##ज़े": 5571,
        "अगरचे": 5572,
        "respect": 5573,
        "spl": 5574,
        "बिगाड़": 5575,
        "lar": 5576,
        "चढ़": 5577,
        "bond": 5578,
        "six": 5579,
        "उम": 5580,
        "डिफ़ॉ": 5581,
        "##yle": 5582,
        "##य्य": 5583,
        "##ाहित": 5584,
        "रास्त": 5585,
        "औरतें": 5586,
        "properties": 5587,
        "पथभ्रष्ट": 5588,
        "02": 5589,
        "##end": 5590,
        "होगे": 5591,
        "खुले": 5592,
        "घे": 5593,
        "मैने": 5594,
        "##फ़ी": 5595,
        "चीज़ों": 5596,
        "काफी": 5597,
        "folk": 5598,
        "डिफ़ॉल्ट": 5599,
        "hus": 5600,
        "मध्य": 5601,
        "##कारों": 5602,
        "टैब": 5603,
        "naught": 5604,
        "पिला": 5605,
        "appointment": 5606,
        "अकार": 5607,
        "दूँगा": 5608,
        "केडी": 5609,
        "making": 5610,
        "शीर्षक": 5611,
        "anjuta": 5612,
        "क़रीब": 5613,
        "whomsoever": 5614,
        "चिह्नित": 5615,
        "##ging": 5616,
        "##शे": 5617,
        "##ेंड": 5618,
        "प्रशा": 5619,
        "##काम": 5620,
        "क़िस्म": 5621,
        "पुकारते": 5622,
        "विरुद्ध": 5623,
        "दोज़ख़": 5624,
        "bound": 5625,
        "एहसान": 5626,
        "बच्चों": 5627,
        "अंतर्": 5628,
        "hurt": 5629,
        "महीने": 5630,
        "pa": 5631,
        "इंच": 5632,
        "सार": 5633,
        "##ूक": 5634,
        "मुलाकात": 5635,
        "sort": 5636,
        "काल": 5637,
        "क़रार": 5638,
        "प्रार्थना": 5639,
        "उतर": 5640,
        "##ior": 5641,
        "अधिकतम": 5642,
        "मददगार": 5643,
        "नाह": 5644,
        "फरिश्ते": 5645,
        "connection": 5646,
        "ldap": 5647,
        "परस्पर": 5648,
        "abs": 5649,
        "दुश्मन": 5650,
        "##bl": 5651,
        "shown": 5652,
        "whenever": 5653,
        "##raid": 5654,
        "चुना": 5655,
        "##वीर": 5656,
        "clean": 5657,
        "tasks": 5658,
        "डाउनलोड": 5659,
        "पनाह": 5660,
        "##ered": 5661,
        "सेवा": 5662,
        "beaut": 5663,
        "मामला": 5664,
        "changed": 5665,
        "compassion": 5666,
        "फें": 5667,
        "##hold": 5668,
        "wants": 5669,
        "enjoin": 5670,
        "replace": 5671,
        "(.": 5672,
        "':": 5673,
        "?'": 5674,
        "##els": 5675,
        "कॉल": 5676,
        "software": 5677,
        "गि": 5678,
        "##पट": 5679,
        "##ठे": 5680,
        "##reme": 5681,
        "##ented": 5682,
        "राज": 5683,
        "witnesses": 5684,
        "toolbar": 5685,
        "cap": 5686,
        "tham": 5687,
        "myself": 5688,
        "foot": 5689,
        "justice": 5690,
        "##ification": 5691,
        "continue": 5692,
        "effect": 5693,
        "global": 5694,
        "नज़": 5695,
        "रि": 5696,
        "चाहें": 5697,
        "description": 5698,
        "flag": 5699,
        "syn": 5700,
        "cra": 5701,
        "##प्ताह": 5702,
        "houses": 5703,
        "##ैत": 5704,
        "chosen": 5705,
        "assured": 5706,
        "प्रदर्शित": 5707,
        "हॉ": 5708,
        "ज़बरदस्त": 5709,
        "देखोगे": 5710,
        "drown": 5711,
        "valid": 5712,
        "##board": 5713,
        "पुरुषों": 5714,
        "\\\\": 5715,
        "##iod": 5716,
        "##ising": 5717,
        "##igr": 5718,
        "प्रो": 5719,
        "##ेशन": 5720,
        "proclaim": 5721,
        "##ogn": 5722,
        "ste": 5723,
        "##ries": 5724,
        "महिला": 5725,
        "पूछा": 5726,
        "वर": 5727,
        "निर्धारित": 5728,
        "respite": 5729,
        "journe": 5730,
        "wall": 5731,
        "##lling": 5732,
        "schem": 5733,
        "नियम": 5734,
        "##weather": 5735,
        "forgot": 5736,
        "period": 5737,
        "destination": 5738,
        "आख": 5739,
        "deleted": 5740,
        "stead": 5741,
        "##ियत": 5742,
        "##uc": 5743,
        "##व्य": 5744,
        "##सूस": 5745,
        "reckoning": 5746,
        "oft": 5747,
        "##ाले": 5748,
        "wanted": 5749,
        "configure": 5750,
        "बूझ": 5751,
        "##oom": 5752,
        "रोज़": 5753,
        "पुकारा": 5754,
        "हटाएँ": 5755,
        "_u": 5756,
        "alarm": 5757,
        "birth": 5758,
        "आज्ञाकारी": 5759,
        "##म्मद": 5760,
        "लक्ष्य": 5761,
        "result": 5762,
        "fab": 5763,
        "afraid": 5764,
        "prayers": 5765,
        "taking": 5766,
        "छुटकारा": 5767,
        "##utes": 5768,
        "since": 5769,
        "##band": 5770,
        "ears": 5771,
        "brothers": 5772,
        "#-#-#": 5773,
        "##port": 5774,
        "##फू": 5775,
        "##edient": 5776,
        "##abled": 5777,
        "#-#-#-#-#": 5778,
        "jack": 5779,
        "मश": 5780,
        "##ool": 5781,
        "opened": 5782,
        "प्रतिदान": 5783,
        "age": 5784,
        "चेह": 5785,
        "##ency": 5786,
        "रहम": 5787,
        "feet": 5788,
        "चाहा": 5789,
        "पाकीज़ा": 5790,
        "raise": 5791,
        "पहाड़": 5792,
        "pard": 5793,
        "नजात": 5794,
        "##तेह": 5795,
        "लाएँ": 5796,
        "राज्य": 5797,
        "holy": 5798,
        "अमान": 5799,
        "टाइ": 5800,
        "grateful": 5801,
        "मौजिज़": 5802,
        "लड़के": 5803,
        "fine": 5804,
        "भार": 5805,
        "##ina": 5806,
        "##ौरन": 5807,
        "सवार": 5808,
        "##शाह": 5809,
        "पाने": 5810,
        "blame": 5811,
        "spir": 5812,
        "##cribed": 5813,
        "##ike": 5814,
        "##pass": 5815,
        "##जूद": 5816,
        "##बाही": 5817,
        "मरियम": 5818,
        "फरमाया": 5819,
        "proud": 5820,
        "कुल": 5821,
        "##ार्म": 5822,
        "सुनने": 5823,
        "कुफ्फार": 5824,
        "##वस": 5825,
        "भरें": 5826,
        "header": 5827,
        "केडीई": 5828,
        "'.": 5829,
        "##ील": 5830,
        "##go": 5831,
        "disable": 5832,
        "##पास": 5833,
        "fruit": 5834,
        "delivered": 5835,
        "दलील": 5836,
        "##bit": 5837,
        "hist": 5838,
        "girl": 5839,
        "क़त्ल": 5840,
        "##मेट": 5841,
        "forbid": 5842,
        "loading": 5843,
        "husband": 5844,
        ")]": 5845,
        "मक्": 5846,
        "यद्य": 5847,
        "excell": 5848,
        "admonition": 5849,
        "यद्यपि": 5850,
        "ट्रे": 5851,
        "मारा": 5852,
        "##उस": 5853,
        "उतारी": 5854,
        "##ground": 5855,
        "अपराध": 5856,
        "lam": 5857,
        "##्वा": 5858,
        "##ैंड": 5859,
        "env": 5860,
        "प्रतीक": 5861,
        "established": 5862,
        "लागू": 5863,
        "गण": 5864,
        "100": 5865,
        "##तं": 5866,
        "##iding": 5867,
        "quick": 5868,
        "फ़रिश्तों": 5869,
        "aught": 5870,
        "win": 5871,
        "आएँ": 5872,
        "earn": 5873,
        "network": 5874,
        "प्रेम": 5875,
        "##थर": 5876,
        "##ियां": 5877,
        "लगते": 5878,
        "बुत": 5879,
        "समस्या": 5880,
        "##ately": 5881,
        "liars": 5882,
        "helper": 5883,
        "जंग": 5884,
        "##दीक": 5885,
        "पाओगे": 5886,
        "##pted": 5887,
        "protector": 5888,
        "authentication": 5889,
        "arrogant": 5890,
        "टो": 5891,
        "##ha": 5892,
        "allow": 5893,
        "story": 5894,
        "purp": 5895,
        "debug": 5896,
        "संरक्षक": 5897,
        "##ॉक": 5898,
        "##ators": 5899,
        "iss": 5900,
        "##ceed": 5901,
        "loss": 5902,
        "##भार": 5903,
        "ang": 5904,
        "सवाब": 5905,
        "##िकता": 5906,
        "uns": 5907,
        "##धर": 5908,
        "##थे": 5909,
        "faithless": 5910,
        "intercess": 5911,
        "दाखिल": 5912,
        "तबाही": 5913,
        "##ॉट": 5914,
        "##ressed": 5915,
        "months": 5916,
        "assuredly": 5917,
        "15": 5918,
        "इबर": 5919,
        "##र्ज़": 5920,
        "मोमिनों": 5921,
        "क़ुदरत": 5922,
        "00": 5923,
        "विधि": 5924,
        "नाफर": 5925,
        "maybe": 5926,
        "recogn": 5927,
        "ख्वाहिश": 5928,
        "डीवी": 5929,
        "rad": 5930,
        "##itable": 5931,
        "content": 5932,
        "kept": 5933,
        "थोड़ा": 5934,
        "sleep": 5935,
        "चम": 5936,
        "##fast": 5937,
        "सीधी": 5938,
        "प्रबंधक": 5939,
        "मौजिज़े": 5940,
        "tong": 5941,
        "आधार": 5942,
        "##फ़त": 5943,
        "मिलता": 5944,
        "जिनसे": 5945,
        "दिखाने": 5946,
        "evidence": 5947,
        "five": 5948,
        "पत्र": 5949,
        "##atter": 5950,
        "क़सम": 5951,
        "संवाद": 5952,
        "सकें": 5953,
        "maj": 5954,
        "झूठे": 5955,
        "##चालित": 5956,
        "##ma": 5957,
        "##alty": 5958,
        "माफ": 5959,
        "##जाम": 5960,
        "##र्ग": 5961,
        "##क्रिय": 5962,
        "##स्था": 5963,
        "वाक": 5964,
        "##ुरु": 5965,
        "सुल": 5966,
        "disgra": 5967,
        "offline": 5968,
        "female": 5969,
        "approach": 5970,
        "आह": 5971,
        "इता": 5972,
        "##खी": 5973,
        "thereafter": 5974,
        "leg": 5975,
        "दूसरों": 5976,
        "तेरा": 5977,
        "curse": 5978,
        "उठाया": 5979,
        "##uh": 5980,
        "##्द": 5981,
        "haply": 5982,
        "गुज़र": 5983,
        "wrath": 5984,
        "signature": 5985,
        "working": 5986,
        "ड्राइ": 5987,
        "सम्बन्ध": 5988,
        "##oken": 5989,
        "चलने": 5990,
        "चाँ": 5991,
        "पासवर्ड": 5992,
        "##asting": 5993,
        "तस्वीर": 5994,
        "dispute": 5995,
        "कोड": 5996,
        "सबके": 5997,
        "अनि": 5998,
        "बादशाह": 5999,
        "चौड़ाई": 6000,
        "आज़": 6001,
        "इजा": 6002,
        "शान": 6003,
        "लिंक": 6004,
        "##imum": 6005,
        "साबित": 6006,
        "##ching": 6007,
        "fill": 6008,
        "partic": 6009,
        "झगड़": 6010,
        "अलावा": 6011,
        "मस्ज": 6012,
        "इतनी": 6013,
        "##करी": 6014,
        "##चं": 6015,
        "देनेवाला": 6016,
        "sud": 6017,
        "##ारों": 6018,
        "जाये": 6019,
        "समुदा": 6020,
        "बनाई": 6021,
        "##म्न": 6022,
        "उपकरण": 6023,
        "mir": 6024,
        "pious": 6025,
        "तम": 6026,
        "नम": 6027,
        "##ining": 6028,
        "कोण": 6029,
        "wicked": 6030,
        "##क्षी": 6031,
        ").\"": 6032,
        "आदमियों": 6033,
        "तकलीफ": 6034,
        "condition": 6035,
        "spirit": 6036,
        "खड़ा": 6037,
        "नफ": 6038,
        "bell": 6039,
        "written": 6040,
        "##ऊँगा": 6041,
        "खिसका": 6042,
        "डीवीडी": 6043,
        "##यास": 6044,
        "निम्न": 6045,
        "dialog": 6046,
        "कच": 6047,
        "रिप": 6048,
        "await": 6049,
        "अक्सर": 6050,
        "##othe": 6051,
        "बरस": 6052,
        "चेताव": 6053,
        "led": 6054,
        "baby": 6055,
        "##ps": 6056,
        "recited": 6057,
        "calls": 6058,
        "डरता": 6059,
        "वर्ग": 6060,
        "understanding": 6061,
        "compassionate": 6062,
        "dream": 6063,
        "pane": 6064,
        "##दय": 6065,
        "कैसी": 6066,
        "victory": 6067,
        "##ss": 6068,
        "abund": 6069,
        "package": 6070,
        "categ": 6071,
        "fit": 6072,
        "thous": 6073,
        "##orrow": 6074,
        "बाव": 6075,
        "##क्षण": 6076,
        "गुनाहगार": 6077,
        "gracious": 6078,
        "धन्य": 6079,
        "इबरत": 6080,
        "##फ्ट": 6081,
        "किये": 6082,
        "##ahim": 6083,
        "humili": 6084,
        "carry": 6085,
        "enemies": 6086,
        "कनेक्शन": 6087,
        "बज": 6088,
        "बाँ": 6089,
        "orph": 6090,
        "chief": 6091,
        "activ": 6092,
        "charity": 6093,
        "बेटों": 6094,
        "seeking": 6095,
        "मिलेगा": 6096,
        "बनाओ": 6097,
        "छोटे": 6098,
        "beautiful": 6099,
        "thousand": 6100,
        "इम": 6101,
        "जल": 6102,
        "##ंब": 6103,
        "सूर्य": 6104,
        "horiz": 6105,
        "style": 6106,
        "##न्दर": 6107,
        "झगड़": 6108,
        "समान": 6109,
        "##वेज": 6110,
        "##ume": 6111,
        "split": 6112,
        "init": 6113,
        "काफिर": 6114,
        "धन्यवाद": 6115,
        "जन्": 6116,
        "##jo": 6117,
        "output": 6118,
        "पुनर्": 6119,
        "संस्थापित": 6120,
        "हत्या": 6121,
        "क़ायम": 6122,
        "रोकते": 6123,
        "थोड़े": 6124,
        "generations": 6125,
        "शिर्क": 6126,
        "sacred": 6127,
        "##स्ल": 6128,
        "store": 6129,
        "##बरदार": 6130,
        "सदस्य": 6131,
        "कामया": 6132,
        "contents": 6133,
        "getting": 6134,
        "companions": 6135,
        "property": 6136,
        "खेती": 6137,
        "##res": 6138,
        "self": 6139,
        "completed": 6140,
        "beneath": 6141,
        "operation": 6142,
        "##चल": 6143,
        "हमपर": 6144,
        "जिनका": 6145,
        "marry": 6146,
        "history": 6147,
        "vert": 6148,
        "##vous": 6149,
        "##तिहास": 6150,
        "needs": 6151,
        "presence": 6152,
        "##brahim": 6153,
        "fabric": 6154,
        "develop": 6155,
        "whereas": 6156,
        "##cial": 6157,
        "specify": 6158,
        "चखो": 6159,
        "उदा": 6160,
        "एम": 6161,
        "##uous": 6162,
        "##ोने": 6163,
        "step": 6164,
        "##une": 6165,
        "होगें": 6166,
        "imap": 6167,
        "आवाज़": 6168,
        "सत्यापन": 6169,
        "संलग्नक": 6170,
        "इंत": 6171,
        "काफ़ी": 6172,
        "stud": 6173,
        "idols": 6174,
        "required": 6175,
        "मुशरिक": 6176,
        "body": 6177,
        "ibrahim": 6178,
        "चखा": 6179,
        "सप्ताह": 6180,
        "मेन": 6181,
        "चाहो": 6182,
        "quit": 6183,
        "परीक्षा": 6184,
        "excellent": 6185,
        "सरी": 6186,
        "##क्टर": 6187,
        "चीज": 6188,
        "string": 6189,
        "removed": 6190,
        "आना": 6191,
        "##ik": 6192,
        "##ड्ड": 6193,
        "व्यस्त": 6194,
        "घो": 6195,
        "happy": 6196,
        "इताअत": 6197,
        "मग़": 6198,
        "पूरे": 6199,
        "##ustr": 6200,
        "##मेन": 6201,
        "benefic": 6202,
        "##59": 6203,
        "##न्ड": 6204,
        "wonder": 6205,
        "##cing": 6206,
        "ungr": 6207,
        "रखनेवालों": 6208,
        "sinners": 6209,
        "pardon": 6210,
        "##oid": 6211,
        "theme": 6212,
        "neg": 6213,
        "creatures": 6214,
        "नीति": 6215,
        "below": 6216,
        "झूठा": 6217,
        "खींच": 6218,
        "san": 6219,
        "न्य": 6220,
        "हल": 6221,
        "##ल्क": 6222,
        "जाय": 6223,
        "tomorrow": 6224,
        "तकलीफ़": 6225,
        "नज़दीक": 6226,
        "fur": 6227,
        "ran": 6228,
        "rot": 6229,
        "गति": 6230,
        "भड़": 6231,
        "##ल्लम": 6232,
        "deaf": 6233,
        "दस्तावेज": 6234,
        "मक़": 6235,
        "##िस्": 6236,
        "सुधार": 6237,
        "निरा": 6238,
        "##onse": 6239,
        "##केज": 6240,
        "contains": 6241,
        "evening": 6242,
        "idol": 6243,
        "छोड़कर": 6244,
        "drag": 6245,
        "voices": 6246,
        "बकवास": 6247,
        "##rain": 6248,
        "isn": 6249,
        "कुबूल": 6250,
        "विवरण": 6251,
        "बहन": 6252,
        "stray": 6253,
        "decree": 6254,
        "details": 6255,
        "##sl": 6256,
        "##िरा": 6257,
        "लेगा": 6258,
        "knoweth": 6259,
        "capt": 6260,
        "assist": 6261,
        "possible": 6262,
        "शे": 6263,
        "##भाल": 6264,
        "##ths": 6265,
        "helped": 6266,
        "business": 6267,
        "domin": 6268,
        "##over": 6269,
        "problem": 6270,
        "देर": 6271,
        "मिली": 6272,
        "लिखें": 6273,
        "मोहम्मद": 6274,
        "thereby": 6275,
        "proxy": 6276,
        "mohamm": 6277,
        "items": 6278,
        "gnu": 6279,
        "temp": 6280,
        "##iling": 6281,
        "uni": 6282,
        "पहुँची": 6283,
        "righteousness": 6284,
        "तलाश": 6285,
        "automatically": 6286,
        "sudden": 6287,
        "समुदाय": 6288,
        "रूह": 6289,
        "pleasure": 6290,
        "islamic": 6291,
        "करीता": 6292,
        "इजाज़त": 6293,
        "##land": 6294,
        "##भूत": 6295,
        "##ेंद्र": 6296,
        "disput": 6297,
        "भेजी": 6298,
        "daughters": 6299,
        "coun": 6300,
        "झुक": 6301,
        "intern": 6302,
        "`%": 6303,
        "##यात": 6304,
        "##iles": 6305,
        "##त्रा": 6306,
        "##itional": 6307,
        "heavy": 6308,
        "ungrateful": 6309,
        "रोका": 6310,
        "खुल्लम": 6311,
        "पत्थर": 6312,
        "अरबी": 6313,
        "journey": 6314,
        "mohammed": 6315,
        "झों": 6316,
        "वचन": 6317,
        "summ": 6318,
        "moving": 6319,
        "कामों": 6320,
        "ways": 6321,
        "country": 6322,
        "बाग़ों": 6323,
        "safe": 6324,
        "guy": 6325,
        "guys": 6326,
        "##ribute": 6327,
        "निष्क्रिय": 6328,
        "बावजूद": 6329,
        "mut": 6330,
        "डूब": 6331,
        "पड़ा": 6332,
        "##रि": 6333,
        "काबा": 6334,
        "repe": 6335,
        "sup": 6336,
        "##apan": 6337,
        "icon": 6338,
        "east": 6339,
        "इतिहास": 6340,
        "##फ़ी": 6341,
        "##unch": 6342,
        "चीज़े": 6343,
        "पत्नी": 6344,
        "begin": 6345,
        "स्त्रियाँ": 6346,
        "produce": 6347,
        "हँसी": 6348,
        "_re": 6349,
        "ग्रह": 6350,
        "##ग्र": 6351,
        "iso": 6352,
        "clos": 6353,
        "books": 6354,
        "##aff": 6355,
        "entered": 6356,
        "cried": 6357,
        "##घा": 6358,
        "const": 6359,
        "जाएँगें": 6360,
        "झुठलाओगे": 6361,
        "attack": 6362,
        "दीवार": 6363,
        "wishes": 6364,
        "standing": 6365,
        "()": 6366,
        "(*": 6367,
        "##ुस": 6368,
        "invoke": 6369,
        "learn": 6370,
        "माना": 6371,
        "यकीन": 6372,
        "##चर": 6373,
        "पुलिस": 6374,
        "inside": 6375,
        "reflect": 6376,
        "एवं": 6377,
        "टा": 6378,
        "पहुंचा": 6379,
        "portion": 6380,
        "परहेज़गारों": 6381,
        "अस्थ": 6382,
        "##लाह": 6383,
        "##रेत": 6384,
        "retribution": 6385,
        "former": 6386,
        "currently": 6387,
        "double": 6388,
        "##ध्ये": 6389,
        "ख़बरदार": 6390,
        "sam": 6391,
        "ऑडियो": 6392,
        "जज़ा": 6393,
        "##ih": 6394,
        "छोटा": 6395,
        "active": 6396,
        "ठहराते": 6397,
        "ज़ालिमों": 6398,
        "alive": 6399,
        "ident": 6400,
        "अन्जाम": 6401,
        "purpose": 6402,
        "##ीदा": 6403,
        "करूँ": 6404,
        "##ubs": 6405,
        "तौरेत": 6406,
        "hours": 6407,
        "##rant": 6408,
        "##जूर": 6409,
        "##arks": 6410,
        "##म्पा": 6411,
        "खुल्ला": 6412,
        "आएगी": 6413,
        "##ज्ज़त": 6414,
        "steadfast": 6415,
        "hot": 6416,
        "##तात": 6417,
        "rejo": 6418,
        "##ियाई": 6419,
        "arabic": 6420,
        "11": 6421,
        "दस": 6422,
        "पल": 6423,
        "dog": 6424,
        "dele": 6425,
        "tried": 6426,
        "सुख": 6427,
        "##िप्": 6428,
        "व्याप": 6429,
        "viol": 6430,
        "”;": 6431,
        "lives": 6432,
        "डालें": 6433,
        "आवाज़": 6434,
        "विस्तार": 6435,
        "छाप": 6436,
        "मूल": 6437,
        "##han": 6438,
        "height": 6439,
        "पकड़": 6440,
        "gathered": 6441,
        "अना": 6442,
        "डो": 6443,
        "door": 6444,
        "##लेमान": 6445,
        "सुलेमान": 6446,
        "अकेला": 6447,
        "करतूत": 6448,
        "नियंत्रण": 6449,
        "ट्रैक": 6450,
        "##ैब": 6451,
        "स्वचालित": 6452,
        "penalty": 6453,
        "##ग़ैरह": 6454,
        "सरीही": 6455,
        "mur": 6456,
        "##िन्ह": 6457,
        "रुको": 6458,
        "powerful": 6459,
        "oaths": 6460,
        "##ंक्शन": 6461,
        "trying": 6462,
        "depart": 6463,
        "(\"": 6464,
        "op": 6465,
        "कार्ड": 6466,
        "कंप": 6467,
        "करु": 6468,
        "overt": 6469,
        "setting": 6470,
        "throw": 6471,
        "busy": 6472,
        "thamud": 6473,
        "इल्": 6474,
        "ट्र": 6475,
        "यून": 6476,
        "##dy": 6477,
        "##yond": 6478,
        "beyond": 6479,
        "निगाह": 6480,
        "attend": 6481,
        "slay": 6482,
        "writing": 6483,
        "जन्म": 6484,
        "पड़ा": 6485,
        "master": 6486,
        "इनसे": 6487,
        "समझे": 6488,
        "छिपाते": 6489,
        "फूँ": 6490,
        "फिट": 6491,
        "##imin": 6492,
        "नाशु": 6493,
        "दुश": 6494,
        "ऊँचा": 6495,
        "kid": 6496,
        "fort": 6497,
        "मनुष्यों": 6498,
        "बरसाया": 6499,
        "pac": 6500,
        "फौरन": 6501,
        "कितना": 6502,
        "सेक": 6503,
        "loves": 6504,
        "देखे": 6505,
        "recip": 6506,
        "actions": 6507,
        "नाशुक्र": 6508,
        "##घन": 6509,
        "##म्भ": 6510,
        "clay": 6511,
        "proper": 6512,
        "अज्र": 6513,
        "sick": 6514,
        "##ताओं": 6515,
        "बाक़ी": 6516,
        "संबंध": 6517,
        "company": 6518,
        "पुस्तक": 6519,
        "zoom": 6520,
        "छू": 6521,
        "##ases": 6522,
        "ant": 6523,
        "##abase": 6524,
        "libr": 6525,
        "sinc": 6526,
        "पश्च": 6527,
        "##देह": 6528,
        "brows": 6529,
        "##फ़्र": 6530,
        "monothe": 6531,
        "पढ़ा": 6532,
        "modify": 6533,
        "सुरक्षा": 6534,
        "sincere": 6535,
        "mine": 6536,
        "##तक": 6537,
        "##isc": 6538,
        "निकले": 6539,
        "bed": 6540,
        "##ury": 6541,
        "trial": 6542,
        "mock": 6543,
        "##iers": 6544,
        "##mal": 6545,
        "##reg": 6546,
        "##ables": 6547,
        "रहेगी": 6548,
        "##airs": 6549,
        "अफसोस": 6550,
        "appear": 6551,
        "escape": 6552,
        "dav": 6553,
        "वग़ैरह": 6554,
        "##कल": 6555,
        "काय": 6556,
        "##ests": 6557,
        "trees": 6558,
        "jav": 6559,
        "constr": 6560,
        "box": 6561,
        "कमाई": 6562,
        "##aron": 6563,
        "chat": 6564,
        "background": 6565,
        "एहकाम": 6566,
        "दादाओं": 6567,
        "अनुकम्पा": 6568,
        "pacific": 6569,
        "dam": 6570,
        "ढा": 6571,
        "##जरत": 6572,
        "सम्म": 6573,
        "##roll": 6574,
        "wherefore": 6575,
        "चिं": 6576,
        "takes": 6577,
        "नाहीये": 6578,
        "idolat": 6579,
        "pict": 6580,
        "##वाना": 6581,
        "##val": 6582,
        "##ality": 6583,
        "सेटिंग": 6584,
        "perfect": 6585,
        "प्रशांत": 6586,
        "drowned": 6587,
        "##omon": 6588,
        "##लेख": 6589,
        "dem": 6590,
        "लेना": 6591,
        "जाननेवाला": 6592,
        "चीज़ों": 6593,
        "बताया": 6594,
        "##lier": 6595,
        "response": 6596,
        "beneficent": 6597,
        "ऑफ़": 6598,
        "##गारी": 6599,
        "मोहलत": 6600,
        "चुपके": 6601,
        "कृतज्ञता": 6602,
        "कचरा": 6603,
        "\")": 6604,
        "हल्": 6605,
        "ज़बान": 6606,
        "##ेंस": 6607,
        "प्रभा": 6608,
        "दाहिने": 6609,
        "आज़मा": 6610,
        "तद": 6611,
        "सीन": 6612,
        "##वारी": 6613,
        "तोड़": 6614,
        "निर्ण": 6615,
        "इन्सा": 6616,
        "jinns": 6617,
        "प्रसन्न": 6618,
        "प्रशंसा": 6619,
        "rebell": 6620,
        "lu": 6621,
        "एख्तेयार": 6622,
        "मसल": 6623,
        "नाफ़र": 6624,
        "##uss": 6625,
        "बुल": 6626,
        "डालो": 6627,
        "ide": 6628,
        "speaking": 6629,
        "happen": 6630,
        "फ्लै": 6631,
        "क्य": 6632,
        "दुर्": 6633,
        "flo": 6634,
        "ordained": 6635,
        "warned": 6636,
        "beside": 6637,
        "आँखों": 6638,
        "धोखे": 6639,
        "disgrace": 6640,
        "dig": 6641,
        "वाह": 6642,
        "##लती": 6643,
        "##ीय": 6644,
        "young": 6645,
        "started": 6646,
        "उम्मत": 6647,
        "strike": 6648,
        "माझ्या": 6649,
        "पान": 6650,
        "फिरते": 6651,
        "गिरफ्त": 6652,
        "air": 6653,
        "दूँ": 6654,
        "शौ": 6655,
        "महफू": 6656,
        "root": 6657,
        "अक्षर": 6658,
        "दर्जे": 6659,
        "महफूज़": 6660,
        "हरे": 6661,
        "क़ब्ल": 6662,
        "##sp": 6663,
        "##िज़ा": 6664,
        "करनी": 6665,
        "##्हें": 6666,
        "stars": 6667,
        "calling": 6668,
        "मिलने": 6669,
        "torah": 6670,
        "var": 6671,
        "नूर": 6672,
        "पोर्ट": 6673,
        "##wr": 6674,
        "खोलने": 6675,
        "pleases": 6676,
        "बिलकुल": 6677,
        "mal": 6678,
        "कही": 6679,
        "कश्त": 6680,
        "खजूर": 6681,
        "योजना": 6682,
        "##ama": 6683,
        "goes": 6684,
        "लाइन": 6685,
        "पुष्टि": 6686,
        "अंतर": 6687,
        "टैग": 6688,
        "transgressors": 6689,
        "monotheism": 6690,
        "आंक": 6691,
        "बहा": 6692,
        "##ics": 6693,
        "प्रक्रिया": 6694,
        "sho": 6695,
        "कहे": 6696,
        "परिवार": 6697,
        "english": 6698,
        "समझो": 6699,
        "पाबन्दी": 6700,
        "30": 6701,
        "##lig": 6702,
        "##uted": 6703,
        "कुफ़्र": 6704,
        "बहका": 6705,
        "कृपा": 6706,
        "correct": 6707,
        "hardship": 6708,
        "24": 6709,
        "pap": 6710,
        "इंटर": 6711,
        "##िं": 6712,
        "##बद्ध": 6713,
        "परो": 6714,
        "##स्टम": 6715,
        "talking": 6716,
        "औज़ार": 6717,
        "क़ायम": 6718,
        "##वट": 6719,
        "onto": 6720,
        "चलता": 6721,
        "slaves": 6722,
        "घाटा": 6723,
        "मुशरे": 6724,
        "died": 6725,
        "vari": 6726,
        "उलट": 6727,
        "ख़िला": 6728,
        "##path": 6729,
        "##icult": 6730,
        "प्रिय": 6731,
        "निवे": 6732,
        "gold": 6733,
        "##दीक़": 6734,
        "belied": 6735,
        "सोचा": 6736,
        "मेहरबानी": 6737,
        "favours": 6738,
        "##ches": 6739,
        "chann": 6740,
        "disob": 6741,
        "बीवियों": 6742,
        "decreed": 6743,
        "missing": 6744,
        "solomon": 6745,
        "सन्देह": 6746,
        "difficult": 6747,
        "rul": 6748,
        "बारी": 6749,
        "भिन्न": 6750,
        "##_bar_": 6751,
        "##aving": 6752,
        "गर्द": 6753,
        "##view": 6754,
        "##rees": 6755,
        "male": 6756,
        "##्टी": 6757,
        "पीछा": 6758,
        "मुक़ाबले": 6759,
        "auto": 6760,
        "divor": 6761,
        "giving": 6762,
        "महत्व": 6763,
        "रुजू": 6764,
        "minutes": 6765,
        "##द्दत": 6766,
        "gt": 6767,
        "sister": 6768,
        "घुमा": 6769,
        "वहीं": 6770,
        "वसी": 6771,
        "##set": 6772,
        "भेजने": 6773,
        "झुठलाते": 6774,
        "ऊँट": 6775,
        "विभेद": 6776,
        "large": 6777,
        "eight": 6778,
        "##edit": 6779,
        "सर्वज्ञ": 6780,
        "corruption": 6781,
        "समुद्र": 6782,
        "चेहरे": 6783,
        "seal": 6784,
        "belief": 6785,
        "aaron": 6786,
        "uh": 6787,
        "vol": 6788,
        "आठ": 6789,
        "इतने": 6790,
        "म्ह": 6791,
        "##spr": 6792,
        "##ूवत": 6793,
        "परवाह": 6794,
        "वापर": 6795,
        "encom": 6796,
        "मौज़": 6797,
        "mill": 6798,
        "डॉ": 6799,
        "##सू": 6800,
        "##version": 6801,
        "fell": 6802,
        "बनकर": 6803,
        "happened": 6804,
        "मज़बूत": 6805,
        "##aly": 6806,
        "नेको": 6807,
        "देखकर": 6808,
        "ourselves": 6809,
        "चुने": 6810,
        "ज्यादती": 6811,
        "misch": 6812,
        "communic": 6813,
        "fixed": 6814,
        "खरी": 6815,
        "##फिक़": 6816,
        "threat": 6817,
        "निकाले": 6818,
        "शिक्षा": 6819,
        "##मध्ये": 6820,
        "इसहा": 6821,
        "##add": 6822,
        "मुख़": 6823,
        "मुन्त": 6824,
        "बीमार": 6825,
        "##लंघन": 6826,
        "गिनती": 6827,
        "दूध": 6828,
        "junk": 6829,
        "अल्": 6830,
        "सत्ता": 6831,
        "##lasting": 6832,
        "##धित": 6833,
        "इनमें": 6834,
        "गुप्त": 6835,
        "अंधे": 6836,
        "travel": 6837,
        "ब्राउ": 6838,
        "मुशरेकीन": 6839,
        "gain": 6840,
        "mime": 6841,
        "पाँव": 6842,
        "मीम": 6843,
        "##ध्यम": 6844,
        "तीस": 6845,
        "हारून": 6846,
        "half": 6847,
        "everlasting": 6848,
        "worldly": 6849,
        "values": 6850,
        "database": 6851,
        "eye": 6852,
        "परोक्ष": 6853,
        "13": 6854,
        "##sec": 6855,
        "pros": 6856,
        "fulfilled": 6857,
        "joh": 6858,
        "vain": 6859,
        "चली": 6860,
        "##iting": 6861,
        "deg": 6862,
        "सकेंगे": 6863,
        "bras": 6864,
        "private": 6865,
        "मिटाना": 6866,
        "आयी": 6867,
        "केंद्र": 6868,
        "##ंगा": 6869,
        "##राने": 6870,
        "##char": 6871,
        "चाहती": 6872,
        "बातिल": 6873,
        "respons": 6874,
        "similar": 6875,
        "तह": 6876,
        "रक्षा": 6877,
        "##rection": 6878,
        "tot": 6879,
        "संग": 6880,
        "grievous": 6881,
        "प्लगिन": 6882,
        "encompass": 6883,
        "आबाद": 6884,
        "मचा": 6885,
        "##र्ज": 6886,
        "##र्दा": 6887,
        "trash": 6888,
        "##off": 6889,
        "50": 6890,
        "jac": 6891,
        "}'": 6892,
        "घेर": 6893,
        "##ding": 6894,
        "##किल": 6895,
        "arri": 6896,
        "offspr": 6897,
        "इरादा": 6898,
        "##सेट": 6899,
        "saving": 6900,
        "मेह": 6901,
        "fearing": 6902,
        "कमबख्त": 6903,
        "answered": 6904,
        "update": 6905,
        "घंटे": 6906,
        "चेतावनी": 6907,
        "brasero": 6908,
        "##uff": 6909,
        "wilt": 6910,
        "##ज़ाम": 6911,
        "लगाते": 6912,
        "affairs": 6913,
        "?’": 6914,
        "##oo": 6915,
        "##edience": 6916,
        "##ालन": 6917,
        "माध्यम": 6918,
        "##वार्य": 6919,
        "पूछते": 6920,
        "टाल": 6921,
        "##for": 6922,
        "##्ति": 6923,
        "unaw": 6924,
        "##kend": 6925,
        "इनके": 6926,
        "गणना": 6927,
        "अनिवार्य": 6928,
        "##िज": 6929,
        "whoso": 6930,
        "देती": 6931,
        "पाए": 6932,
        "ships": 6933,
        "offspring": 6934,
        "रिक्त": 6935,
        "##ैम": 6936,
        "##झा": 6937,
        "पर्या": 6938,
        "pract": 6939,
        "manage": 6940,
        "बुलाया": 6941,
        "##बेस": 6942,
        "visible": 6943,
        "'{": 6944,
        "mou": 6945,
        "surre": 6946,
        "अक": 6947,
        "कतरा": 6948,
        "साह": 6949,
        "सित": 6950,
        "##omet": 6951,
        "पाते": 6952,
        "हाय": 6953,
        "दिखायें": 6954,
        "recall": 6955,
        "रुस": 6956,
        "export": 6957,
        "कड़ी": 6958,
        "##ंह": 6959,
        "##ped": 6960,
        "weight": 6961,
        "area": 6962,
        "follows": 6963,
        "kinds": 6964,
        "',": 6965,
        "named": 6966,
        "row": 6967,
        "round": 6968,
        "##erve": 6969,
        "isa": 6970,
        "force": 6971,
        "accounts": 6972,
        "regular": 6973,
        "मंज़": 6974,
        "*.": 6975,
        "bones": 6976,
        "van": 6977,
        "waste": 6978,
        "भरे": 6979,
        "##मंड": 6980,
        "कर्ता": 6981,
        "input": 6982,
        "फरिश्तों": 6983,
        "switch": 6984,
        "सम्मान": 6985,
        "मैदान": 6986,
        "##ियाद": 6987,
        "प्रसंग": 6988,
        "जानवरों": 6989,
        "##कोप": 6990,
        "lex": 6991,
        "शैली": 6992,
        "standard": 6993,
        "सजदे": 6994,
        "पिताजी": 6995,
        "चाँद": 6996,
        "''": 6997,
        "##60": 6998,
        "जाकर": 6999,
        "जहाँन": 7000,
        "fighting": 7001,
        "अपराधी": 7002,
        "character": 7003,
        "ir": 7004,
        "##side": 7005,
        "##uf": 7006,
        "##वित्र": 7007,
        "##vs": 7008,
        "believes": 7009,
        "##ression": 7010,
        "highlight": 7011,
        "पसंदीदा": 7012,
        "sacr": 7013,
        "regarding": 7014,
        "##vern": 7015,
        "##क्की": 7016,
        "##हरण": 7017,
        "wherever": 7018,
        "पुनः": 7019,
        "considered": 7020,
        "worshipped": 7021,
        "christians": 7022,
        "रिपोर्ट": 7023,
        "pil": 7024,
        "##तार": 7025,
        "दोष": 7026,
        "##िलित": 7027,
        "claim": 7028,
        "पीने": 7029,
        "couldn": 7030,
        "कॉपी": 7031,
        "community": 7032,
        "bott": 7033,
        "##ell": 7034,
        "sees": 7035,
        "sever": 7036,
        "needy": 7037,
        "diam": 7038,
        "लगाए": 7039,
        "अगला": 7040,
        "##ूर्ण": 7041,
        "profile": 7042,
        "सम्मिलित": 7043,
        "jacob": 7044,
        "##नर": 7045,
        "##ल्ड": 7046,
        "doth": 7047,
        "पैसे": 7048,
        "turning": 7049,
        "clearly": 7050,
        "##ibility": 7051,
        "उठे": 7052,
        "शीर्षिका": 7053,
        "battle": 7054,
        "तर्क": 7055,
        "##face": 7056,
        "##केल": 7057,
        "##ियॉ": 7058,
        "blaz": 7059,
        "amongst": 7060,
        "##देव": 7061,
        "hosts": 7062,
        "##conf": 7063,
        "hit": 7064,
        "ta": 7065,
        "प्रयास": 7066,
        "ground": 7067,
        "सालेह": 7068,
        "entry": 7069,
        "किनारे": 7070,
        "खुशख़बरी": 7071,
        "आउटपुट": 7072,
        "horizont": 7073,
        "मछ": 7074,
        "मख़": 7075,
        "##list": 7076,
        "##bb": 7077,
        "##बाल": 7078,
        "spr": 7079,
        "समझता": 7080,
        "perce": 7081,
        "मिलकर": 7082,
        "param": 7083,
        "reading": 7084,
        "उल्लंघन": 7085,
        "यहूदी": 7086,
        "ऑफ": 7087,
        "बग़ैर": 7088,
        "##इट": 7089,
        "index": 7090,
        "बोला": 7091,
        "decision": 7092,
        "पढ़ने": 7093,
        "शादी": 7094,
        "final": 7095,
        "25": 7096,
        "ज़कात": 7097,
        "##ट्ठा": 7098,
        "##नें": 7099,
        "##पसंद": 7100,
        "togg": 7101,
        "##oked": 7102,
        "बनाना": 7103,
        "##ोर्ड": 7104,
        "memory": 7105,
        "//": 7106,
        "hund": 7107,
        "##कडे": 7108,
        "front": 7109,
        "डालते": 7110,
        "महसूस": 7111,
        "subs": 7112,
        "क्रम": 7113,
        "installed": 7114,
        "camer": 7115,
        "tempor": 7116,
        "prosper": 7117,
        "hundred": 7118,
        "000": 7119,
        "pix": 7120,
        "एंड": 7121,
        "शरार": 7122,
        "##vey": 7123,
        "wel": 7124,
        "प्रि": 7125,
        "indian": 7126,
        "however": 7127,
        "foundation": 7128,
        "##upon": 7129,
        "छुपाएँ": 7130,
        "non": 7131,
        "कक्ष": 7132,
        "नष्ट": 7133,
        "देखना": 7134,
        "##ंडार": 7135,
        "सुंदर": 7136,
        "पूजते": 7137,
        "भड़कती": 7138,
        "टूट": 7139,
        "घरवालों": 7140,
        "interp": 7141,
        "pag": 7142,
        "एच": 7143,
        "खत्म": 7144,
        "##vin": 7145,
        "संदेह": 7146,
        "fault": 7147,
        "infide": 7148,
        "strive": 7149,
        "hello": 7150,
        "mailbox": 7151,
        "module": 7152,
        "मिस्र": 7153,
        "फेंक": 7154,
        "मस्जिद": 7155,
        "ease": 7156,
        "खर्च": 7157,
        "##भूमि": 7158,
        "##though": 7159,
        "लाएँगे": 7160,
        "##ीकृत": 7161,
        "काफ़ी": 7162,
        "माँगता": 7163,
        "japan": 7164,
        "##pes": 7165,
        "##हाल": 7166,
        "##ats": 7167,
        "मौजिज़ा": 7168,
        "playing": 7169,
        "कठिन": 7170,
        "वृक्ष": 7171,
        "वर्णन": 7172,
        "bottom": 7173,
        "88": 7174,
        "चित्र": 7175,
        "although": 7176,
        "guess": 7177,
        "गुज़": 7178,
        "बीवी": 7179,
        "retrie": 7180,
        "बनो": 7181,
        "president": 7182,
        "immed": 7183,
        "अन्दा": 7184,
        "न्याय": 7185,
        "shad": 7186,
        "asse": 7187,
        "ascribe": 7188,
        "पहुंच": 7189,
        "creator": 7190,
        "causes": 7191,
        "based": 7192,
        "धी": 7193,
        "##र्त": 7194,
        "believer": 7195,
        "india": 7196,
        "clip": 7197,
        "spades": 7198,
        "road": 7199,
        "breasts": 7200,
        "plugins": 7201,
        "gar": 7202,
        "ढूँ": 7203,
        "##िमा": 7204,
        "twain": 7205,
        "commands": 7206,
        "प्राप्तकर्ता": 7207,
        "##ternal": 7208,
        "birds": 7209,
        "रूस": 7210,
        "##uk": 7211,
        "##ऊद": 7212,
        "##क़ात": 7213,
        "breath": 7214,
        "चालू": 7215,
        "glorify": 7216,
        "bal": 7217,
        "west": 7218,
        "##vious": 7219,
        "प्रोज": 7220,
        "दरगु": 7221,
        "झुठलाने": 7222,
        "मरयम": 7223,
        "सच्ची": 7224,
        "मनपसंद": 7225,
        "templ": 7226,
        "क़ाबू": 7227,
        "observe": 7228,
        "mischief": 7229,
        "cir": 7230,
        "फसाद": 7231,
        "##icode": 7232,
        "govern": 7233,
        "बिछ": 7234,
        "ज़र": 7235,
        "devot": 7236,
        "बच्चा": 7237,
        "चौपा": 7238,
        "स्ट्र": 7239,
        "हुकुम": 7240,
        "collect": 7241,
        "library": 7242,
        "alex": 7243,
        "bac": 7244,
        "##टो": 7245,
        "prison": 7246,
        "पागल": 7247,
        "ताबे": 7248,
        "सरदारों": 7249,
        "marri": 7250,
        "तुला": 7251,
        "angel": 7252,
        "प्राण": 7253,
        "police": 7254,
        "अवज्ञाकारी": 7255,
        "नुक़": 7256,
        "david": 7257,
        "surrender": 7258,
        ";{": 7259,
        "fle": 7260,
        "green": 7261,
        "##ole": 7262,
        "##der": 7263,
        "निजी": 7264,
        "माइ": 7265,
        "पैमान": 7266,
        "greatest": 7267,
        "sorcer": 7268,
        "##दर्शिता": 7269,
        "##कस": 7270,
        "एक्": 7271,
        "संदेशों": 7272,
        "gotta": 7273,
        "मुहताज": 7274,
        "rid": 7275,
        "तेज": 7276,
        "परेश": 7277,
        "restore": 7278,
        "भुला": 7279,
        "ज़्यादती": 7280,
        "खौल": 7281,
        "##sv": 7282,
        "shut": 7283,
        "##द्दी": 7284,
        "acqu": 7285,
        "despair": 7286,
        "14": 7287,
        "दस्त": 7288,
        "रिस": 7289,
        "##ler": 7290,
        "##दृ": 7291,
        "संच": 7292,
        "##ifies": 7293,
        "अंक": 7294,
        "extra": 7295,
        "##worthy": 7296,
        "attachment": 7297,
        "नाहक़": 7298,
        "गिरफ्तार": 7299,
        "##pathy": 7300,
        "bud": 7301,
        "nice": 7302,
        "उड़ा": 7303,
        "पद": 7304,
        "फ्र": 7305,
        "फोल्डर": 7306,
        "##योजना": 7307,
        "करनेवाली": 7308,
        "purify": 7309,
        "चश्": 7310,
        "जानों": 7311,
        "जाएँगी": 7312,
        "groups": 7313,
        "entire": 7314,
        "यूआर": 7315,
        "center": 7316,
        "आवश्यक": 7317,
        "उपा": 7318,
        "##बूर": 7319,
        "##atives": 7320,
        "परदा": 7321,
        "देखेंगे": 7322,
        "manner": 7323,
        "सिफ़": 7324,
        "seconds": 7325,
        "खोलकर": 7326,
        "प्राथम": 7327,
        "cell": 7328,
        "उदाहरण": 7329,
        "late": 7330,
        "wage": 7331,
        "हानि": 7332,
        "##इयों": 7333,
        "दोहरा": 7334,
        "अनुप": 7335,
        "प्रेषक": 7336,
        "प्रभावी": 7337,
        "म्हण": 7338,
        "john": 7339,
        "पवित्र": 7340,
        "##eg": 7341,
        "##cus": 7342,
        "##वन": 7343,
        "निव": 7344,
        "नेट": 7345,
        "trad": 7346,
        "evild": 7347,
        "shows": 7348,
        "कैम": 7349,
        "actor": 7350,
        "पुकारो": 7351,
        "voice": 7352,
        "सिफ़ार": 7353,
        "evildo": 7354,
        "lose": 7355,
        "शराब": 7356,
        "सूरत": 7357,
        "नेमत": 7358,
        "normal": 7359,
        "scatter": 7360,
        "असली": 7361,
        "enjoyment": 7362,
        "निर्णय": 7363,
        "bag": 7364,
        "लप": 7365,
        "##form": 7366,
        "##बरा": 7367,
        "trou": 7368,
        "##िको": 7369,
        "curs": 7370,
        "slave": 7371,
        "बहुदेव": 7372,
        "ज़ालिमों": 7373,
        "palm": 7374,
        "ऑफ़लाइन": 7375,
        "ban": 7376,
        "जला": 7377,
        "झा": 7378,
        "ज़लील": 7379,
        "##iving": 7380,
        "##gener": 7381,
        "##याल": 7382,
        "##key": 7383,
        "वाज़े": 7384,
        "##वालो": 7385,
        "स्थायी": 7386,
        "दाऊद": 7387,
        "##ख्तियार": 7388,
        "mosque": 7389,
        "भूमि": 7390,
        "lived": 7391,
        "recur": 7392,
        "keys": 7393,
        "लड़का": 7394,
        "snow": 7395,
        "almost": 7396,
        "summary": 7397,
        "diamonds": 7398,
        "sum": 7399,
        "speed": 7400,
        "किताबे": 7401,
        "रुए": 7402,
        "##दूरी": 7403,
        "md": 7404,
        "अज़ी": 7405,
        "##न्नों": 7406,
        "alph": 7407,
        "##acy": 7408,
        "oblig": 7409,
        "अनुस्मृति": 7410,
        "सॉ": 7411,
        "तोड़": 7412,
        "मुअ": 7413,
        "##ety": 7414,
        "रोज़े": 7415,
        "डाली": 7416,
        "आवड": 7417,
        "पिछला": 7418,
        "निकाला": 7419,
        "places": 7420,
        "occurred": 7421,
        "तदबीर": 7422,
        "नाफ़रमानी": 7423,
        "marriage": 7424,
        "##ैक": 7425,
        "unl": 7426,
        "दीजिए": 7427,
        "comput": 7428,
        "##पीआई": 7429,
        "##चानक": 7430,
        "किनारा": 7431,
        "army": 7432,
        "भटका": 7433,
        "शर्म": 7434,
        "ज़ोर": 7435,
        "##ya": 7436,
        "दिशा": 7437,
        "stream": 7438,
        "विलो": 7439,
        "माफी": 7440,
        "राज़ी": 7441,
        "successful": 7442,
        "mm": 7443,
        "अचानक": 7444,
        "ईंट": 7445,
        "##तें": 7446,
        "जिला": 7447,
        "स्म": 7448,
        "वैसा": 7449,
        "आँखें": 7450,
        "maintain": 7451,
        "प्रोजेक्ट": 7452,
        "जहां": 7453,
        "लड़ाई": 7454,
        "करूँगा": 7455,
        "unicode": 7456,
        "क्लिप": 7457,
        "publish": 7458,
        "दौड़": 7459,
        "लेखक": 7460,
        "fet": 7461,
        "जहा": 7462,
        "जमे": 7463,
        "##cul": 7464,
        "##icname": 7465,
        "##न्दु": 7466,
        "submiss": 7467,
        "प्रतिष्ठ": 7468,
        "चिल्ला": 7469,
        "##iction": 7470,
        "stayed": 7471,
        "8859": 7472,
        "cach": 7473,
        "fought": 7474,
        "thread": 7475,
        "##ese": 7476,
        "मुताब": 7477,
        "aside": 7478,
        "नाव": 7479,
        "##स्थिति": 7480,
        "##ैसले": 7481,
        "बेटियाँ": 7482,
        "प्रदर्शक": 7483,
        "श्रेणी": 7484,
        "cvs": 7485,
        "kor": 7486,
        "mist": 7487,
        "squ": 7488,
        "हथ": 7489,
        "##कारे": 7490,
        "##ges": 7491,
        "##ोगी": 7492,
        "exact": 7493,
        "निश्चि": 7494,
        "bestow": 7495,
        "##\\\\\\\\": 7496,
        "बुतों": 7497,
        "supreme": 7498,
        "##bra": 7499,
        "##चक": 7500,
        "##केट": 7501,
        "##ंगें": 7502,
        "events": 7503,
        "cursed": 7504,
        "मारने": 7505,
        "जोड़ने": 7506,
        "limits": 7507,
        "ignorant": 7508,
        "suddenly": 7509,
        "व्यापार": 7510,
        "सिफ़ारिश": 7511,
        "cities": 7512,
        "इज्ज़त": 7513,
        "##ंगे": 7514,
        "##pi": 7515,
        "रूए": 7516,
        "special": 7517,
        "निर्यात": 7518,
        "मरत": 7519,
        "लड़की": 7520,
        "जमाअत": 7521,
        "widget": 7522,
        "आवश्यकता": 7523,
        "ms": 7524,
        "आइ": 7525,
        "उगा": 7526,
        "ठहरे": 7527,
        "क़िस्म": 7528,
        "केले": 7529,
        "##select": 7530,
        "जिनपर": 7531,
        "बेच": 7532,
        "रोज़ा": 7533,
        "उठाने": 7534,
        "crash": 7535,
        "match": 7536,
        "clouds": 7537,
        "gun": 7538,
        "गर": 7539,
        "फ्रे": 7540,
        "##mail": 7541,
        "##अर": 7542,
        "allowed": 7543,
        "निगे": 7544,
        "usage": 7545,
        "earlier": 7546,
        "कारस्ता": 7547,
        "ख़ु": 7548,
        "वाक़िफकार": 7549,
        "unaware": 7550,
        "injust": 7551,
        "प्रॉ": 7552,
        "मुंह": 7553,
        "agree": 7554,
        "##श्चित": 7555,
        "फ़ाइलों": 7556,
        "##ization": 7557,
        "अभिव": 7558,
        "मक़स": 7559,
        "rename": 7560,
        "ssl": 7561,
        "##्हा": 7562,
        "विवाह": 7563,
        "स्क्रिप्ट": 7564,
        "अलार्म": 7565,
        "inhab": 7566,
        "नुक़सान": 7567,
        "##genericname": 7568,
        "फट": 7569,
        "बने": 7570,
        "मुश्": 7571,
        "lock": 7572,
        "sinful": 7573,
        "favors": 7574,
        "सम्प": 7575,
        "ज़्यादा": 7576,
        "निगेह": 7577,
        "hat": 7578,
        "pick": 7579,
        "इंड": 7580,
        "चर": 7581,
        "shame": 7582,
        "कहें": 7583,
        "chance": 7584,
        "क़त्ल": 7585,
        "destru": 7586,
        "गोपन": 7587,
        "तस्बीह": 7588,
        "मॉड": 7589,
        "##where": 7590,
        "greet": 7591,
        "##सत": 7592,
        "tri": 7593,
        "remained": 7594,
        "wherewith": 7595,
        "जैक": 7596,
        "##ension": 7597,
        "ऊँची": 7598,
        "channel": 7599,
        "welcome": 7600,
        "_v": 7601,
        "zak": 7602,
        "गढ़": 7603,
        "घमंड": 7604,
        "##nam": 7605,
        "काही": 7606,
        "##imate": 7607,
        "convey": 7608,
        "नाते": 7609,
        "mac": 7610,
        "followers": 7611,
        "##erman": 7612,
        "fully": 7613,
        "avoid": 7614,
        "companion": 7615,
        "questioned": 7616,
        "भुग": 7617,
        "fif": 7618,
        "lying": 7619,
        "ताल": 7620,
        "वाज": 7621,
        "लाम": 7622,
        "पैकेज": 7623,
        "##हरों": 7624,
        "बिन्दु": 7625,
        "asking": 7626,
        "looks": 7627,
        "गुमान": 7628,
        "distress": 7629,
        "अमल": 7630,
        "!’": 7631,
        "भरी": 7632,
        "रद्दी": 7633,
        "##हरी": 7634,
        "##णा": 7635,
        "राष्ट": 7636,
        "symbol": 7637,
        "सूरज": 7638,
        "bondmen": 7639,
        "initial": 7640,
        "temporary": 7641,
        "fut": 7642,
        "mere": 7643,
        "शरण": 7644,
        "##ances": 7645,
        "##image": 7646,
        "कर्मों": 7647,
        "199": 7648,
        "\";": 7649,
        "हड्ड": 7650,
        "##oon": 7651,
        "तुम्हाला": 7652,
        "##वादी": 7653,
        "disk": 7654,
        "mothers": 7655,
        "करेगें": 7656,
        "##मीटर": 7657,
        "helpers": 7658,
        "evidences": 7659,
        "अपराधियों": 7660,
        "backend": 7661,
        "अज़": 7662,
        "अफ़": 7663,
        "उभार": 7664,
        "एड": 7665,
        "##निक": 7666,
        "##कू": 7667,
        "price": 7668,
        "मुल्क": 7669,
        "बनाता": 7670,
        "liar": 7671,
        "owner": 7672,
        "warnings": 7673,
        "विरोध": 7674,
        "उलटे": 7675,
        "dawn": 7676,
        "inspired": 7677,
        "injustice": 7678,
        "उड़ा": 7679,
        "जानने": 7680,
        "##ounce": 7681,
        "##aken": 7682,
        "ज़कात": 7683,
        "packages": 7684,
        "फ़रमाया": 7685,
        "nine": 7686,
        "बत": 7687,
        "##sequ": 7688,
        "हिजरत": 7689,
        "incom": 7690,
        "ठहराया": 7691,
        "पृष्ठभूमि": 7692,
        "subjected": 7693,
        "##योजन": 7694,
        "अस्थायी": 7695,
        "फ्लैग": 7696,
        "aun": 7697,
        "fish": 7698,
        "शेष": 7699,
        "##डिया": 7700,
        "super": 7701,
        "शैता": 7702,
        "वाज़ेए": 7703,
        "मक़सूद": 7704,
        "प्रयुक्त": 7705,
        "यूसुफ़": 7706,
        "excuse": 7707,
        "फिटकार": 7708,
        "मौज़ूदा": 7709,
        "elect": 7710,
        "mouse": 7711,
        "अटक": 7712,
        "फोटो": 7713,
        "लाइ": 7714,
        "direction": 7715,
        "##retched": 7716,
        "खोजें": 7717,
        "committed": 7718,
        "touched": 7719,
        "encryption": 7720,
        "कॉन्फ़िगर": 7721,
        "नाफरमानी": 7722,
        "पर्याप्त": 7723,
        "चेक": 7724,
        "दक्ष": 7725,
        "धु": 7726,
        "हंस": 7727,
        "ज़िक्र": 7728,
        "##शत": 7729,
        "intend": 7730,
        "प्रश्": 7731,
        "##iff": 7732,
        "सबकी": 7733,
        "grand": 7734,
        "बैठा": 7735,
        "majest": 7736,
        "16": 7737,
        "एख्तियार": 7738,
        "##hen": 7739,
        "##ट्": 7740,
        "##ौलत": 7741,
        "leaves": 7742,
        "दिखाए": 7743,
        "मानक": 7744,
        "निस्बत": 7745,
        "matters": 7746,
        "वैसे": 7747,
        "मुर्दों": 7748,
        "प्रॉक्सी": 7749,
        "!”": 7750,
        "length": 7751,
        "नो": 7752,
        "वग": 7753,
        "##कान": 7754,
        "संग्रह": 7755,
        "बदौलत": 7756,
        "dwelling": 7757,
        "exceed": 7758,
        "छिपी": 7759,
        "third": 7760,
        "##सेरो": 7761,
        "देगी": 7762,
        "##ighty": 7763,
        "संभाव": 7764,
        "छोटी": 7765,
        "parts": 7766,
        "चलाएँ": 7767,
        "permissions": 7768,
        "टुकड़े": 7769,
        "original": 7770,
        "32": 7771,
        "तुल": 7772,
        "##सिक": 7773,
        "##iter": 7774,
        "##सेल": 7775,
        "नियुक्त": 7776,
        "spent": 7777,
        "perman": 7778,
        "##aces": 7779,
        "##्रीय": 7780,
        "अग्र": 7781,
        "हिस्से": 7782,
        "मर्दों": 7783,
        "##भाग्य": 7784,
        "##धिकार": 7785,
        "अत्याचारियों": 7786,
        "कॉन्फ़िग": 7787,
        "communications": 7788,
        "औजार": 7789,
        "##्यूल": 7790,
        "##isters": 7791,
        "grad": 7792,
        "organ": 7793,
        "vertical": 7794,
        "दक्षि": 7795,
        "ग्रे": 7796,
        "न्यू": 7797,
        "लु": 7798,
        "##ेंडर": 7799,
        "हम्द": 7800,
        "rele": 7801,
        "होम": 7802,
        "कुशा": 7803,
        "दोनो": 7804,
        "बिज": 7805,
        "##cript": 7806,
        "उद्": 7807,
        "फॉ": 7808,
        "##बोर्ड": 7809,
        "##ingly": 7810,
        "inj": 7811,
        "पुराने": 7812,
        "added": 7813,
        "rock": 7814,
        "profit": 7815,
        "idolaters": 7816,
        "mil": 7817,
        "##िड": 7818,
        "##डिंग": 7819,
        "##परी": 7820,
        "pled": 7821,
        "scroll": 7822,
        "minute": 7823,
        "प्रविष्टि": 7824,
        "mirac": 7825,
        "paramet": 7826,
        "##ंदा": 7827,
        "##विष": 7828,
        "camel": 7829,
        "devil": 7830,
        "रीति": 7831,
        "खिसकाएँ": 7832,
        "=\\\\\\\\": 7833,
        "अँ": 7834,
        "रॉ": 7835,
        "##gy": 7836,
        "##iet": 7837,
        "##ops": 7838,
        "बेकार": 7839,
        "##orted": 7840,
        "ago": 7841,
        "browser": 7842,
        "lower": 7843,
        "mim": 7844,
        "ब्रे": 7845,
        "भरा": 7846,
        "##itions": 7847,
        "रहोगे": 7848,
        "##alle": 7849,
        "perish": 7850,
        "मारो": 7851,
        "जरूरी": 7852,
        "ahead": 7853,
        "evildoers": 7854,
        "mort": 7855,
        "que": 7856,
        "tur": 7857,
        "आय": 7858,
        "एं": 7859,
        "ब्रै": 7860,
        "relation": 7861,
        "note": 7862,
        "जिन्नों": 7863,
        "additional": 7864,
        "empathy": 7865,
        "numbers": 7866,
        "explain": 7867,
        "बैकअप": 7868,
        "17": 7869,
        "जितना": 7870,
        "साक्षी": 7871,
        "##akes": 7872,
        "offic": 7873,
        "युक्ति": 7874,
        "त्यां": 7875,
        "##ॉगल": 7876,
        "thankful": 7877,
        "origin": 7878,
        "destruction": 7879,
        "!'": 7880,
        "pan": 7881,
        "पॉप": 7882,
        "सैन": 7883,
        "##हक़": 7884,
        "##थी": 7885,
        "thunder": 7886,
        "##enty": 7887,
        "team": 7888,
        "अधिस": 7889,
        "apply": 7890,
        "purs": 7891,
        "दर्श": 7892,
        "परहेज़गारी": 7893,
        "##color": 7894,
        "descendants": 7895,
        "न्यून": 7896,
        "बुलन्द": 7897,
        "अधिसू": 7898,
        "इं": 7899,
        "राजा": 7900,
        "आसानी": 7901,
        "प्रत्यक्ष": 7902,
        "डेटा": 7903,
        "मेन्यू": 7904,
        "base": 7905,
        "hang": 7906,
        "wra": 7907,
        "टॉगल": 7908,
        "फी": 7909,
        "सको": 7910,
        "forec": 7911,
        "जितने": 7912,
        "sex": 7913,
        "##ियर": 7914,
        "##लीस": 7915,
        "worst": 7916,
        "appre": 7917,
        "##शाही": 7918,
        "headers": 7919,
        "school": 7920,
        "successfully": 7921,
        "दिखला": 7922,
        "further": 7923,
        "ऑन": 7924,
        "##app": 7925,
        "देव": 7926,
        "बीबी": 7927,
        "south": 7928,
        "servant": 7929,
        "फरमाबरदार": 7930,
        "दौड़": 7931,
        "डाटाबेस": 7932,
        "category": 7933,
        "##write": 7934,
        "forecast": 7935,
        "cup": 7936,
        "दम": 7937,
        "साधन": 7938,
        "##कियों": 7939,
        "दिखाते": 7940,
        "##eps": 7941,
        "मोहताज": 7942,
        "dwellers": 7943,
        "ड्राइव": 7944,
        "महत्वपूर्ण": 7945,
        "pull": 7946,
        "खड़ा": 7947,
        "प्रदर्शन": 7948,
        "क्ला": 7949,
        "डिब": 7950,
        "रातों": 7951,
        "testify": 7952,
        "media": 7953,
        "ज़िम्मेदारी": 7954,
        "almighty": 7955,
        "अमानत": 7956,
        "वसीयत": 7957,
        "isaac": 7958,
        "बतौर": 7959,
        "gate": 7960,
        "##cent": 7961,
        "##anna": 7962,
        "##itory": 7963,
        "bright": 7964,
        "leaving": 7965,
        "clubs": 7966,
        "##चीत": 7967,
        "किसने": 7968,
        "gtk": 7969,
        "18": 7970,
        "एका": 7971,
        "मज़": 7972,
        "क़ी": 7973,
        "प्रात": 7974,
        "fears": 7975,
        "honor": 7976,
        "absol": 7977,
        "inhabit": 7978,
        "चिक": 7979,
        "संत": 7980,
        "##दिन": 7981,
        "proto": 7982,
        "##जील": 7983,
        "बोह": 7984,
        "विश्ले": 7985,
        "icons": 7986,
        "करीब": 7987,
        "सदस्यता": 7988,
        "निश्चिन्त": 7989,
        "hun": 7990,
        "pages": 7991,
        "आफ": 7992,
        "चिन्ह": 7993,
        "पैरा": 7994,
        "सिस्टम": 7995,
        "प्रतिज्ञा": 7996,
        "डराओ": 7997,
        "आवृत्त": 7998,
        "नौका": 7999,
        "assigned": 8000,
        "तमन्ना": 8001,
        "various": 8002,
        "il": 8003,
        "ख्": 8004,
        "##ैट": 8005,
        "##नेट": 8006,
        "online": 8007,
        "##imes": 8008,
        "deep": 8009,
        "client": 8010,
        "##त्मा": 8011,
        "##शीदा": 8012,
        "decided": 8013,
        "पहुँचने": 8014,
        "पोशीदा": 8015,
        "तरीके": 8016,
        "##एमएल": 8017,
        "तौरैत": 8018,
        "प्रातः": 8019,
        "born": 8020,
        "fing": 8021,
        "खाल": 8022,
        "##गम": 8023,
        "##गन": 8024,
        "##11": 8025,
        "##ड़ाई": 8026,
        "bookmarks": 8027,
        "छापें": 8028,
        "paper": 8029,
        "sought": 8030,
        "पति": 8031,
        "हुज़": 8032,
        "##antly": 8033,
        "##ounter": 8034,
        "##ूदी": 8035,
        "conduct": 8036,
        "दरगुज़र": 8037,
        "template": 8038,
        "c_": 8039,
        "fon": 8040,
        "nations": 8041,
        "xml": 8042,
        "##ंगी": 8043,
        "respond": 8044,
        "ruin": 8045,
        "sar": 8046,
        "रिम": 8047,
        "##शोध": 8048,
        "therewith": 8049,
        "विज": 8050,
        "फरमाएगा": 8051,
        "ach": 8052,
        "gree": 8053,
        "hind": 8054,
        "अजी": 8055,
        "यहीं": 8056,
        "##मों": 8057,
        "##ुलाम": 8058,
        "##vest": 8059,
        "##ँट": 8060,
        "##ँक": 8061,
        "##ically": 8062,
        "भीतर": 8063,
        "##rier": 8064,
        "rightly": 8065,
        "becomes": 8066,
        "व्यक्त": 8067,
        "दर्ज": 8068,
        "layout": 8069,
        "कपटा": 8070,
        "paid": 8071,
        "pour": 8072,
        "sense": 8073,
        "ya": 8074,
        "डिर": 8075,
        "##uel": 8076,
        "गिरोहों": 8077,
        "likeness": 8078,
        "इंतजार": 8079,
        "निगेहबान": 8080,
        "पॅ": 8081,
        "भंडार": 8082,
        "##जित": 8083,
        "जोड़े": 8084,
        "फिरे": 8085,
        "संभव": 8086,
        "boiling": 8087,
        "##म्ब": 8088,
        "##श्चर्य": 8089,
        "रूजू": 8090,
        "निर्मित": 8091,
        "हुकू": 8092,
        "camera": 8093,
        "fonts": 8094,
        ",)": 8095,
        "valle": 8096,
        "सवाल": 8097,
        "##ळी": 8098,
        "##ज़ब": 8099,
        "##ख़ी": 8100,
        "frame": 8101,
        "meth": 8102,
        "chose": 8103,
        "##osa": 8104,
        "छोड़ा": 8105,
        "कमज़": 8106,
        "निराश": 8107,
        "पक्ष": 8108,
        "वहां": 8109,
        "##cut": 8110,
        "##dle": 8111,
        "##ृह": 8112,
        "होस्ट": 8113,
        "अप्र": 8114,
        "पाओ": 8115,
        "cometh": 8116,
        "##वर्ती": 8117,
        "नेअमतों": 8118,
        "अंगूर": 8119,
        "रिमोट": 8120,
        "cy": 8121,
        "जाह": 8122,
        "##ियल": 8123,
        "सबब": 8124,
        "दावे": 8125,
        "##ख़्त": 8126,
        "प्ले": 8127,
        "छाया": 8128,
        "स्वागत": 8129,
        "preferred": 8130,
        "arguments": 8131,
        "birthday": 8132,
        "cursor": 8133,
        "बछ": 8134,
        "लड़ाई": 8135,
        "##गि": 8136,
        "##erous": 8137,
        "##ालत": 8138,
        "लोगे": 8139,
        "oneness": 8140,
        "स्लाइ": 8141,
        "हां": 8142,
        "##book": 8143,
        "##screen": 8144,
        "tongue": 8145,
        "%%": 8146,
        "bas": 8147,
        "भविष": 8148,
        "##कु": 8149,
        "##पट्टी": 8150,
        "##ल्लत": 8151,
        "colors": 8152,
        "heads": 8153,
        "music": 8154,
        "फ़रिश्तों": 8155,
        "springs": 8156,
        "सृ": 8157,
        "##upp": 8158,
        "wide": 8159,
        "held": 8160,
        "##iled": 8161,
        "मात": 8162,
        "enabled": 8163,
        "##istan": 8164,
        "resur": 8165,
        "न्यूनतम": 8166,
        "py": 8167,
        "इंग": 8168,
        "##rop": 8169,
        "##राव": 8170,
        "संसा": 8171,
        "बदकार": 8172,
        "##टेड": 8173,
        "दाख़": 8174,
        "##ोजन": 8175,
        "existing": 8176,
        "पश्चिम": 8177,
        "दाख़िल": 8178,
        "इतरा": 8179,
        "ऑप": 8180,
        "##iate": 8181,
        "##एब": 8182,
        "मुक्त": 8183,
        "consequ": 8184,
        "##ively": 8185,
        "बादशाही": 8186,
        "defe": 8187,
        "encounter": 8188,
        "covered": 8189,
        "orphans": 8190,
        "computer": 8191,
        "मुश्किल": 8192,
        "वगैर": 8193,
        "बोहतान": 8194,
        "सकी": 8195,
        "##mn": 8196,
        "##zy": 8197,
        "एकत्र": 8198,
        "##ित्व": 8199,
        "वाजे": 8200,
        "warrant": 8201,
        "बरबाद": 8202,
        "स्तम्भ": 8203,
        "सहेजने": 8204,
        "swift": 8205,
        "clipboard": 8206,
        "permanently": 8207,
        "यार": 8208,
        "यानि": 8209,
        "##सों": 8210,
        "refer": 8211,
        "sender": 8212,
        "माफ़": 8213,
        "wasn": 8214,
        "worthy": 8215,
        "बेख़": 8216,
        "imag": 8217,
        "लगाने": 8218,
        "humb": 8219,
        "अन्यथा": 8220,
        "अन्तिम": 8221,
        "शरारत": 8222,
        "future": 8223,
        "अस्त": 8224,
        "चर्": 8225,
        "##onent": 8226,
        "##र्न": 8227,
        "##ilt": 8228,
        "बादल": 8229,
        "##ज्ञाप": 8230,
        "निर्माण": 8231,
        "##िश्ता": 8232,
        "मज़दूरी": 8233,
        "आवाज": 8234,
        "ancients": 8235,
        "method": 8236,
        "इष्ट": 8237,
        "धम": 8238,
        "##सिब": 8239,
        "##थन": 8240,
        "##@}": 8241,
        "##this": 8242,
        "मुद्र": 8243,
        "मुस्ल": 8244,
        "star": 8245,
        "stones": 8246,
        "किताबों": 8247,
        "##भाषित": 8248,
        "##सरत": 8249,
        "125": 8250,
        "virtuous": 8251,
        "क्व": 8252,
        "पडे": 8253,
        "##शित": 8254,
        "##ju": 8255,
        "uncle": 8256,
        "रखनेवाला": 8257,
        "##rove": 8258,
        "testim": 8259,
        "चैनल": 8260,
        "mentioned": 8261,
        "++": 8262,
        "fly": 8263,
        "ram": 8264,
        "##ैद": 8265,
        "##भर": 8266,
        "##anc": 8267,
        "station": 8268,
        "पहला": 8269,
        "adm": 8270,
        "##oses": 8271,
        "bliss": 8272,
        "क़समें": 8273,
        "खुशी": 8274,
        "गिरा": 8275,
        "आगाह": 8276,
        "charge": 8277,
        "करतूतों": 8278,
        "कश्ती": 8279,
        "alexander": 8280,
        "resurrect": 8281,
        "hop": 8282,
        "vill": 8283,
        "तक़": 8284,
        "##gu": 8285,
        "##20": 8286,
        "करू": 8287,
        "प्रण": 8288,
        "जिबरी": 8289,
        "trium": 8290,
        "sold": 8291,
        "alike": 8292,
        "##ंदगी": 8293,
        "ज़िम्मे": 8294,
        "जहन्नुमी": 8295,
        "मज़े": 8296,
        "leaders": 8297,
        "heedless": 8298,
        "piety": 8299,
        "##ेक्ट्री": 8300,
        "आंकड़ा": 8301,
        "विलोपित": 8302,
        "जिबरील": 8303,
        "triumph": 8304,
        "rise": 8305,
        "आश्चर्य": 8306,
        "घटा": 8307,
        "हकी": 8308,
        "##ेक्षा": 8309,
        "forbe": 8310,
        "##र्ट": 8311,
        "##itation": 8312,
        "##स्टर": 8313,
        "##रेब": 8314,
        "रखनेवाले": 8315,
        "common": 8316,
        "query": 8317,
        "starting": 8318,
        "swall": 8319,
        "लौटना": 8320,
        "calam": 8321,
        "symbols": 8322,
        "मछली": 8323,
        "हुकूमत": 8324,
        "भविष्य": 8325,
        "मुस्लिम": 8326,
        "आकर": 8327,
        "यती": 8328,
        "फ़साद": 8329,
        "##saf": 8330,
        "##_m": 8331,
        "##ench": 8332,
        "##मेंट": 8333,
        "attribute": 8334,
        "terms": 8335,
        "delay": 8336,
        "dominion": 8337,
        "rom": 8338,
        "अस्": 8339,
        "असा": 8340,
        "वरी": 8341,
        "##ww": 8342,
        "##iders": 8343,
        "shu": 8344,
        "मुर्दा": 8345,
        "##स्क्र": 8346,
        "##asted": 8347,
        "relatives": 8348,
        "mapi": 8349,
        "##from": 8350,
        "bookmark": 8351,
        "horizontal": 8352,
        "cms": 8353,
        "wanna": 8354,
        "दंड": 8355,
        "काग": 8356,
        "##icate": 8357,
        "staff": 8358,
        "##वरूप": 8359,
        "झुका": 8360,
        "##िनल": 8361,
        "flesh": 8362,
        "बचाने": 8363,
        "वरना": 8364,
        "idea": 8365,
        "nigh": 8366,
        "vouch": 8367,
        "नस": 8368,
        "नज़र": 8369,
        "##र्ड": 8370,
        "दिये": 8371,
        "प्रकोप": 8372,
        "##ourse": 8373,
        "सुनि": 8374,
        "महिमा": 8375,
        "त्याला": 8376,
        "आँक": 8377,
        "##जनक": 8378,
        "inhabitants": 8379,
        "aim": 8380,
        "कम्प": 8381,
        "पक्का": 8382,
        "फु": 8383,
        "सफ़": 8384,
        "##ping": 8385,
        "किस्": 8386,
        "##र्श": 8387,
        "resc": 8388,
        "दावा": 8389,
        "लगाया": 8390,
        "office": 8391,
        "कमज़": 8392,
        "ठहराए": 8393,
        "पत्नियों": 8394,
        "कानों": 8395,
        "कदाचित": 8396,
        "bounties": 8397,
        "terror": 8398,
        "trouble": 8399,
        "भुगतान": 8400,
        "##रब": 8401,
        "##राबी": 8402,
        "suc": 8403,
        "##ुत्र": 8404,
        "thinking": 8405,
        "righteously": 8406,
        "mountain": 8407,
        "शरीर": 8408,
        "advice": 8409,
        "lesson": 8410,
        "लौटाए": 8411,
        "अटकल": 8412,
        "sides": 8413,
        "wal": 8414,
        "चोरी": 8415,
        "दूरी": 8416,
        "नक्": 8417,
        "माह": 8418,
        "फ़ाय": 8419,
        "##वियाँ": 8420,
        "विजे": 8421,
        "alms": 8422,
        "resol": 8423,
        "सरदार": 8424,
        "बदलने": 8425,
        "चिड़ी": 8426,
        "##pected": 8427,
        "जेहाद": 8428,
        "मुहलत": 8429,
        "अकेले": 8430,
        "moment": 8431,
        "अफ़": 8432,
        "नगर": 8433,
        "##oad": 8434,
        "##ैरात": 8435,
        "##ordin": 8436,
        "समाहित": 8437,
        "लेबल": 8438,
        "देखी": 8439,
        "##usion": 8440,
        "##ंदु": 8441,
        "##पाई": 8442,
        "coop": 8443,
        "ख़ाक": 8444,
        "blessing": 8445,
        "वास्तविक": 8446,
        "encod": 8447,
        "तसदीक़": 8448,
        "व्यवहार": 8449,
        "maximum": 8450,
        "succeed": 8451,
        "wander": 8452,
        "तल": 8453,
        "क़रा": 8454,
        "##opy": 8455,
        "ash": 8456,
        "हरकत": 8457,
        "devils": 8458,
        "##्रांस": 8459,
        "पढ़ा": 8460,
        "लौटकर": 8461,
        "calcul": 8462,
        "delight": 8463,
        "ऑंखों": 8464,
        "picture": 8465,
        "क्लिपबोर्ड": 8466,
        "कॉन्फ़िगरेशन": 8467,
        "बिजली": 8468,
        "_i": 8469,
        "wont": 8470,
        "धूप": 8471,
        "##यता": 8472,
        "कीजिए": 8473,
        "##verted": 8474,
        "comfort": 8475,
        "upright": 8476,
        "##न्दों": 8477,
        "scan": 8478,
        "attain": 8479,
        "फरमाई": 8480,
        "important": 8481,
        "##िप्प": 8482,
        "सीनों": 8483,
        "प्रश्न": 8484,
        "वबाल": 8485,
        "##ze": 8486,
        "##्रमा": 8487,
        "sake": 8488,
        "alif": 8489,
        "##भीर": 8490,
        "twice": 8491,
        "चौकट": 8492,
        "extract": 8493,
        "मुशरिकों": 8494,
        "मख़लू": 8495,
        "कुशादा": 8496,
        "sisters": 8497,
        "गैर": 8498,
        "व्ह": 8499,
        "##कम": 8500,
        "चीज़े": 8501,
        "obedient": 8502,
        "2007": 8503,
        "माबूदों": 8504,
        "##हासन": 8505,
        "ऑंखें": 8506,
        "driver": 8507,
        "sens": 8508,
        "##सिया": 8509,
        "##जान": 8510,
        "prayed": 8511,
        "##ogle": 8512,
        "distin": 8513,
        "calf": 8514,
        "firmly": 8515,
        "likes": 8516,
        "इल्ज़ाम": 8517,
        "मुअय्य": 8518,
        "तुलना": 8519,
        "डिरेक्ट्री": 8520,
        "चर्चा": 8521,
        "bord": 8522,
        "dread": 8523,
        "टिप्प": 8524,
        "किस्म": 8525,
        "##माने": 8526,
        "लाज़": 8527,
        "broken": 8528,
        "goodly": 8529,
        "sets": 8530,
        "whereof": 8531,
        "envir": 8532,
        "neglect": 8533,
        "recipients": 8534,
        "दफा": 8535,
        "##tr": 8536,
        "##anced": 8537,
        "progress": 8538,
        "##ार्क": 8539,
        "भेजते": 8540,
        "design": 8541,
        "married": 8542,
        "सोने": 8543,
        "साझीदार": 8544,
        "translators": 8545,
        "toggle": 8546,
        "ain": 8547,
        "चोट": 8548,
        "##uce": 8549,
        "##orter": 8550,
        "winds": 8551,
        "train": 8552,
        "##ulation": 8553,
        "कामना": 8554,
        "##uded": 8555,
        "otherwise": 8556,
        "reload": 8557,
        "##ival": 8558,
        "पिछली": 8559,
        "बरसात": 8560,
        "launch": 8561,
        "affliction": 8562,
        "कमज़ोर": 8563,
        "du": 8564,
        "##िना": 8565,
        "##िकी": 8566,
        "##ळे": 8567,
        "seize": 8568,
        "दिखाना": 8569,
        "females": 8570,
        "सिखाया": 8571,
        "ब्रैसेरो": 8572,
        "सुनिश्चित": 8573,
        "fat": 8574,
        "आत्मा": 8575,
        "कार्": 8576,
        "रस्": 8577,
        "माय": 8578,
        "साथियों": 8579,
        "scale": 8580,
        "कैश": 8581,
        "prompt": 8582,
        "ayat": 8583,
        "intercession": 8584,
        "मग़फ": 8585,
        "infidels": 8586,
        "gent": 8587,
        "migr": 8588,
        "www": 8589,
        "कं": 8590,
        "टर्म": 8591,
        "##fathers": 8592,
        "##िष्ट": 8593,
        "##12": 8594,
        "##एन": 8595,
        "##omb": 8596,
        "weather": 8597,
        "stor": 8598,
        "##साठी": 8599,
        "##श्व": 8600,
        "indec": 8601,
        "कार्यक्रम": 8602,
        "yester": 8603,
        "अनुकूल": 8604,
        "अजीब": 8605,
        "whats": 8606,
        "comment": 8607,
        "उन्होने": 8608,
        "बेटी": 8609,
        "##oser": 8610,
        "सरकार": 8611,
        "punished": 8612,
        "##भाषा": 8613,
        "displayed": 8614,
        "equals": 8615,
        "grief": 8616,
        "विभिन्न": 8617,
        "multiple": 8618,
        "environ": 8619,
        "yesterday": 8620,
        "ward": 8621,
        "तख्त": 8622,
        "##cs": 8623,
        "##card": 8624,
        "##ब्त": 8625,
        "##त्ते": 8626,
        "creates": 8627,
        "सर्वा": 8628,
        "छोड़ें": 8629,
        "generic": 8630,
        "##फारिश": 8631,
        "rebellious": 8632,
        "degrees": 8633,
        "perceive": 8634,
        "वगैरह": 8635,
        "vouchsaf": 8636,
        "bin": 8637,
        "mix": 8638,
        "nar": 8639,
        "आज्ञाप": 8640,
        "उह": 8641,
        "चिप": 8642,
        "रिक": 8643,
        "##वर्क": 8644,
        "##नीमत": 8645,
        "सिफारिश": 8646,
        "इन्हें": 8647,
        "##गीत": 8648,
        "वैसी": 8649,
        "तंगी": 8650,
        "मजबूर": 8651,
        "forefathers": 8652,
        "हथियार": 8653,
        "testimony": 8654,
        "आज्ञापालन": 8655,
        "bind": 8656,
        "huh": 8657,
        "##ken": 8658,
        "##कल्प": 8659,
        "##ैश": 8660,
        "beings": 8661,
        "परदे": 8662,
        "##uring": 8663,
        "कुर्": 8664,
        "altern": 8665,
        "##शनूदी": 8666,
        "बताता": 8667,
        "kindness": 8668,
        "##world": 8669,
        "मुनासिब": 8670,
        "patiently": 8671,
        "laid": 8672,
        "##दरते": 8673,
        "सारांश": 8674,
        "awaits": 8675,
        "कामयाबी": 8676,
        "interpret": 8677,
        "मरतबा": 8678,
        "फ्रेम": 8679,
        "जुल": 8680,
        "फि": 8681,
        "##ba": 8682,
        "##िलिप": 8683,
        "इनपुट": 8684,
        "बदकारी": 8685,
        "##elp": 8686,
        "झूठी": 8687,
        "popup": 8688,
        "animals": 8689,
        "इन्साफ़": 8690,
        "प्राथमिकता": 8691,
        "क़राबत": 8692,
        "pairs": 8693,
        "क़ब्र": 8694,
        "##शनी": 8695,
        "##र्मी": 8696,
        "बाएँ": 8697,
        "स्टे": 8698,
        "##जीव": 8699,
        "महल": 8700,
        "##वेयर": 8701,
        "बाग़ों": 8702,
        "उम्र": 8703,
        "यूआरएल": 8704,
        "whatsthis": 8705,
        "wed": 8706,
        "##uation": 8707,
        "##हान": 8708,
        "seed": 8709,
        "पाएँगे": 8710,
        "afterward": 8711,
        "whereon": 8712,
        "opening": 8713,
        "बरहक़": 8714,
        "पैग़ाम": 8715,
        "##ाबू": 8716,
        "अगली": 8717,
        "बढ़कर": 8718,
        "checking": 8719,
        "submitted": 8720,
        "वाजेए": 8721,
        "ibl": 8722,
        "luck": 8723,
        "deities": 8724,
        "बुलाते": 8725,
        "##look": 8726,
        "जाँचें": 8727,
        "cards": 8728,
        "characters": 8729,
        "सिंहासन": 8730,
        "अधिसूचना": 8731,
        "परत": 8732,
        "sovere": 8733,
        "##देश्य": 8734,
        "blow": 8735,
        "क़ाबू": 8736,
        "##विन": 8737,
        "cost": 8738,
        "pret": 8739,
        "creating": 8740,
        "बारिश": 8741,
        "हक़ी": 8742,
        "अलि": 8743,
        "began": 8744,
        "login": 8745,
        "lessons": 8746,
        "sovereign": 8747,
        "_j": 8748,
        "fig": 8749,
        "lines": 8750,
        "ren": 8751,
        "जुदा": 8752,
        "##ीकरण": 8753,
        "##gl": 8754,
        "पाय": 8755,
        "##सील": 8756,
        "thereupon": 8757,
        "google": 8758,
        "##ाइयों": 8759,
        "सूझ": 8760,
        "showed": 8761,
        "लगो": 8762,
        "settled": 8763,
        "personal": 8764,
        "##----": 8765,
        "limit": 8766,
        "md5": 8767,
        "cache": 8768,
        "rans": 8769,
        "गंत": 8770,
        "##pg": 8771,
        "##lebr": 8772,
        "प्रोटो": 8773,
        "माउस": 8774,
        "actually": 8775,
        "परिवर्त": 8776,
        "increased": 8777,
        "celebr": 8778,
        "ग्रस्त": 8779,
        "टुकड़े": 8780,
        "translate": 8781,
        "उल्लेख": 8782,
        "corrupt": 8783,
        "wine": 8784,
        "उड़": 8785,
        "डाय": 8786,
        "भोजन": 8787,
        "##ंकि": 8788,
        "##itive": 8789,
        "##साफ़": 8790,
        "therefrom": 8791,
        "north": 8792,
        "लिखी": 8793,
        "सख्ती": 8794,
        "associated": 8795,
        "##ंत्रण": 8796,
        "printer": 8797,
        "##त्मक": 8798,
        "##गुज़ार": 8799,
        "तलाक़": 8800,
        "government": 8801,
        "iblis": 8802,
        ".,": 8803,
        "कट": 8804,
        "तोह": 8805,
        "##icy": 8806,
        "##काई": 8807,
        "##सास": 8808,
        "##्वी": 8809,
        "सरल": 8810,
        "थोड़ी": 8811,
        "prevent": 8812,
        "पृथ": 8813,
        "##inese": 8814,
        "बर्न": 8815,
        "अर्थात": 8816,
        "शैतानों": 8817,
        "आएँगे": 8818,
        "इंज": 8819,
        "उचित": 8820,
        "घु": 8821,
        "##ny": 8822,
        "##्लो": 8823,
        "##चि": 8824,
[...]
